{
    "Ā": 0,
    "ā": 1,
    "Ă": 2,
    "ă": 3,
    "Ą": 4,
    "ą": 5,
    "Ć": 6,
    "ć": 7,
    "Ĉ": 8,
    "ĉ": 9,
    "Ċ": 10,
    "ċ": 11,
    "Č": 12,
    "č": 13,
    "Ď": 14,
    "ď": 15,
    "Đ": 16,
    "đ": 17,
    "Ē": 18,
    "ē": 19,
    "Ĕ": 20,
    "ĕ": 21,
    "Ė": 22,
    "ė": 23,
    "Ę": 24,
    "ę": 25,
    "Ě": 26,
    "ě": 27,
    "Ĝ": 28,
    "ĝ": 29,
    "Ğ": 30,
    "ğ": 31,
    "Ġ": 32,
    "!": 33,
    "\"": 34,
    "#": 35,
    "$": 36,
    "%": 37,
    "&": 38,
    "'": 39,
    "(": 40,
    ")": 41,
    "*": 42,
    "+": 43,
    ",": 44,
    "-": 45,
    ".": 46,
    "/": 47,
    "0": 48,
    "1": 49,
    "2": 50,
    "3": 51,
    "4": 52,
    "5": 53,
    "6": 54,
    "7": 55,
    "8": 56,
    "9": 57,
    ":": 58,
    ";": 59,
    "<": 60,
    "=": 61,
    ">": 62,
    "?": 63,
    "@": 64,
    "A": 65,
    "B": 66,
    "C": 67,
    "D": 68,
    "E": 69,
    "F": 70,
    "G": 71,
    "H": 72,
    "I": 73,
    "J": 74,
    "K": 75,
    "L": 76,
    "M": 77,
    "N": 78,
    "O": 79,
    "P": 80,
    "Q": 81,
    "R": 82,
    "S": 83,
    "T": 84,
    "U": 85,
    "V": 86,
    "W": 87,
    "X": 88,
    "Y": 89,
    "Z": 90,
    "[": 91,
    "\\": 92,
    "]": 93,
    "^": 94,
    "_": 95,
    "`": 96,
    "a": 97,
    "b": 98,
    "c": 99,
    "d": 100,
    "e": 101,
    "f": 102,
    "g": 103,
    "h": 104,
    "i": 105,
    "j": 106,
    "k": 107,
    "l": 108,
    "m": 109,
    "n": 110,
    "o": 111,
    "p": 112,
    "q": 113,
    "r": 114,
    "s": 115,
    "t": 116,
    "u": 117,
    "v": 118,
    "w": 119,
    "x": 120,
    "y": 121,
    "z": 122,
    "{": 123,
    "|": 124,
    "}": 125,
    "~": 126,
    "ġ": 127,
    "Ģ": 128,
    "ģ": 129,
    "Ĥ": 130,
    "ĥ": 131,
    "Ħ": 132,
    "ħ": 133,
    "Ĩ": 134,
    "ĩ": 135,
    "Ī": 136,
    "ī": 137,
    "Ĭ": 138,
    "ĭ": 139,
    "Į": 140,
    "į": 141,
    "İ": 142,
    "ı": 143,
    "Ĳ": 144,
    "ĳ": 145,
    "Ĵ": 146,
    "ĵ": 147,
    "Ķ": 148,
    "ķ": 149,
    "ĸ": 150,
    "Ĺ": 151,
    "ĺ": 152,
    "Ļ": 153,
    "ļ": 154,
    "Ľ": 155,
    "ľ": 156,
    "Ŀ": 157,
    "ŀ": 158,
    "Ł": 159,
    "ł": 160,
    "¡": 161,
    "¢": 162,
    "£": 163,
    "¤": 164,
    "¥": 165,
    "¦": 166,
    "§": 167,
    "¨": 168,
    "©": 169,
    "ª": 170,
    "«": 171,
    "¬": 172,
    "Ń": 173,
    "®": 174,
    "¯": 175,
    "°": 176,
    "±": 177,
    "²": 178,
    "³": 179,
    "´": 180,
    "µ": 181,
    "¶": 182,
    "·": 183,
    "¸": 184,
    "¹": 185,
    "º": 186,
    "»": 187,
    "¼": 188,
    "½": 189,
    "¾": 190,
    "¿": 191,
    "À": 192,
    "Á": 193,
    "Â": 194,
    "Ã": 195,
    "Ä": 196,
    "Å": 197,
    "Æ": 198,
    "Ç": 199,
    "È": 200,
    "É": 201,
    "Ê": 202,
    "Ë": 203,
    "Ì": 204,
    "Í": 205,
    "Î": 206,
    "Ï": 207,
    "Ð": 208,
    "Ñ": 209,
    "Ò": 210,
    "Ó": 211,
    "Ô": 212,
    "Õ": 213,
    "Ö": 214,
    "×": 215,
    "Ø": 216,
    "Ù": 217,
    "Ú": 218,
    "Û": 219,
    "Ü": 220,
    "Ý": 221,
    "Þ": 222,
    "ß": 223,
    "à": 224,
    "á": 225,
    "â": 226,
    "ã": 227,
    "ä": 228,
    "å": 229,
    "æ": 230,
    "ç": 231,
    "è": 232,
    "é": 233,
    "ê": 234,
    "ë": 235,
    "ì": 236,
    "í": 237,
    "î": 238,
    "ï": 239,
    "ð": 240,
    "ñ": 241,
    "ò": 242,
    "ó": 243,
    "ô": 244,
    "õ": 245,
    "ö": 246,
    "÷": 247,
    "ø": 248,
    "ù": 249,
    "ú": 250,
    "û": 251,
    "ü": 252,
    "ý": 253,
    "þ": 254,
    "ÿ": 255,
    "<|endoftext|>": 256,
    "Ġt": 257,
    "he": 258,
    "Ġa": 259,
    "Ġs": 260,
    "Ġw": 261,
    "nd": 262,
    "Ġthe": 263,
    "ed": 264,
    "Ġb": 265,
    "Ġto": 266,
    "Ġand": 267,
    "Ġh": 268,
    "Ġf": 269,
    "in": 270,
    "ĠT": 271,
    "Ġwa": 272,
    "re": 273,
    "it": 274,
    "ou": 275,
    "Ġl": 276,
    "Ġd": 277,
    "Ġc": 278,
    "Ġp": 279,
    "ay": 280,
    "Ġm": 281,
    "er": 282,
    "Ġwas": 283,
    "om": 284,
    "ĠThe": 285,
    "Ġhe": 286,
    "is": 287,
    "ar": 288,
    "Ġn": 289,
    "im": 290,
    "on": 291,
    "Ġsa": 292,
    "id": 293,
    "ll": 294,
    "Ġha": 295,
    "Ġg": 296,
    "at": 297,
    "ĠS": 298,
    "ing": 299,
    "ot": 300,
    "en": 301,
    "an": 302,
    "le": 303,
    "or": 304,
    "ir": 305,
    "am": 306,
    "et": 307,
    "ĠH": 308,
    "Ġit": 309,
    "Ġth": 310,
    "ig": 311,
    "ĠThey": 312,
    "Ġin": 313,
    "il": 314,
    "Ġpl": 315,
    "ĠHe": 316,
    "Ġ\"": 317,
    "ow": 318,
    "ver": 319,
    "ri": 320,
    "ut": 321,
    "Ġbe": 322,
    "Ġu": 323,
    "Ġsaid": 324,
    "Ġplay": 325,
    "ith": 326,
    "Ġday": 327,
    "Ġwith": 328,
    "pp": 329,
    "On": 330,
    "Ġo": 331,
    "Ġy": 332,
    "oo": 333,
    "ked": 334,
    "Ġr": 335,
    "Ġher": 336,
    "ce": 337,
    "ĠI": 338,
    "ĠShe": 339,
    "ld": 340,
    "ĠTim": 341,
    "Ġhis": 342,
    "Ġst": 343,
    "ke": 344,
    "Ġe": 345,
    "Ġbig": 346,
    "nt": 347,
    "ck": 348,
    "Ġyou": 349,
    "very": 350,
    "st": 351,
    "ve": 352,
    "end": 353,
    "Ġon": 354,
    "un": 355,
    "Ġhapp": 356,
    "riend": 357,
    "Ġfriend": 358,
    "all": 359,
    "ily": 360,
    "ĠL": 361,
    "Ġthey": 362,
    "Ġwe": 363,
    "Ġhad": 364,
    "Ġnot": 365,
    "Ġli": 366,
    "Ġup": 367,
    "her": 368,
    "Ġwant": 369,
    "Ġof": 370,
    "ad": 371,
    "itt": 372,
    "se": 373,
    "ĠB": 374,
    "Ġdo": 375,
    "Ġhappy": 376,
    "ent": 377,
    "Ġvery": 378,
    "ĠM": 379,
    "es": 380,
    "Ġthat": 381,
    "Ġsaw": 382,
    "One": 383,
    "'s": 384,
    "ould": 385,
    "Ġmom": 386,
    "Ġfor": 387,
    "Ġsh": 388,
    "ittle": 389,
    "Ġlittle": 390,
    "Ġso": 391,
    "Ġshe": 392,
    "ch": 393,
    "ime": 394,
    "Ġne": 395,
    "Ġnam": 396,
    ".\"": 397,
    "Ġtime": 398,
    "Ġk": 399,
    "ound": 400,
    "Ġthere": 401,
    "Ġnamed": 402,
    "Ġsm": 403,
    "Ġbo": 404,
    "Ġwere": 405,
    "ĠLily": 406,
    "Ġwanted": 407,
    "Ġbut": 408,
    "out": 409,
    "The": 410,
    "Ġfriends": 411,
    "ved": 412,
    "!\"": 413,
    "ht": 414,
    "ĠTom": 415,
    "ird": 416,
    "el": 417,
    "Ġbird": 418,
    "al": 419,
    "Ġan": 420,
    "ake": 421,
    "Ġtoo": 422,
    "ome": 423,
    "ĠIt": 424,
    "ug": 425,
    "ide": 426,
    "Ġwent": 427,
    "Ġwh": 428,
    "Ġhel": 429,
    "Once": 430,
    "Ġis": 431,
    "Ġall": 432,
    "Ġhelp": 433,
    "ue": 434,
    "Ġloo": 435,
    "Ġlo": 436,
    "ter": 437,
    "ĠA": 438,
    "Ġupon": 439,
    "ry": 440,
    "ore": 441,
    "ind": 442,
    "Ġfun": 443,
    "get": 444,
    "Ġtoy": 445,
    "ill": 446,
    "ame": 447,
    "Ġas": 448,
    "Ġat": 449,
    "ra": 450,
    "Ġj": 451,
    "Ġdid": 452,
    "gether": 453,
    "Ġre": 454,
    "ur": 455,
    "Ġse": 456,
    "Ġtogether": 457,
    "ack": 458,
    "Ġcat": 459,
    "ly": 460,
    "Ġtre": 461,
    "ood": 462,
    "ic": 463,
    "ted": 464,
    "Ġdog": 465,
    "Ġcould": 466,
    "Ġcan": 467,
    "Ġtheir": 468,
    "ard": 469,
    "ec": 470,
    "ark": 471,
    "Ġgir": 472,
    "Ġplayed": 473,
    "Ġhim": 474,
    "Ġball": 475,
    "?\"": 476,
    "Ġgirl": 477,
    "way": 478,
    "Ġro": 479,
    "Ġgo": 480,
    "hed": 481,
    "my": 482,
    "Ġare": 483,
    "Ġout": 484,
    "Ġle": 485,
    "Ġfr": 486,
    "ain": 487,
    "Ġkn": 488,
    "hen": 489,
    "Ġthem": 490,
    "um": 491,
    "'t": 492,
    "ax": 493,
    "Ġsad": 494,
    "ul": 495,
    "Ġboy": 496,
    "Ġtree": 497,
    "other": 498,
    "Ġhave": 499,
    "Ġman": 500,
    "Ġcl": 501,
    "Ġloved": 502,
    "Ġlooked": 503,
    "oug": 504,
    "Ġfound": 505,
    "Ġsp": 506,
    "Ġstar": 507,
    "ĠSue": 508,
    "one": 509,
    "hing": 510,
    "Ġsc": 511,
    "Ġback": 512,
    "own": 513,
    "ĠMax": 514,
    "are": 515,
    "Ġlike": 516,
    "ful": 517,
    "side": 518,
    "Ġme": 519,
    "Ġbec": 520,
    "Ġpark": 521,
    "ight": 522,
    "ong": 523,
    "Ġcar": 524,
    "op": 525,
    "elt": 526,
    "ĠOne": 527,
    "Ġliked": 528,
    "Ġwould": 529,
    "Ġmake": 530,
    "round": 531,
    "Ġla": 532,
    "Ġfa": 533,
    "Ġfelt": 534,
    "You": 535,
    "ĠW": 536,
    "ell": 537,
    "Ġsee": 538,
    "ĠBut": 539,
    "omet": 540,
    "Ġasked": 541,
    "ag": 542,
    "Ġnew": 543,
    "Ġno": 544,
    "ice": 545,
    "ĠSam": 546,
    "ouse": 547,
    "Ġstarted": 548,
    "ared": 549,
    "Ġcame": 550,
    "ĠBen": 551,
    "Ġal": 552,
    "Ġother": 553,
    "ought": 554,
    "iled": 555,
    "Ġsomet": 556,
    "Ġag": 557,
    "Ġgood": 558,
    "Ġsmall": 559,
    "ss": 560,
    "Ġbr": 561,
    "Ġsmiled": 562,
    "Ġsay": 563,
    "ried": 564,
    "ade": 565,
    "ings": 566,
    "ob": 567,
    "pot": 568,
    "Ġwor": 569,
    "Ġfind": 570,
    "Ġex": 571,
    "ia": 572,
    "Ġaway": 573,
    "ty": 574,
    "Ġput": 575,
    "Ġwhat": 576,
    "Ġsomething": 577,
    "Ġco": 578,
    "Ġfrom": 579,
    "Ġmade": 580,
    "Ġthought": 581,
    "ened": 582,
    "Ġhome": 583,
    "Ġplaying": 584,
    "ook": 585,
    "Ġevery": 586,
    "Ġwal": 587,
    "Ġmu": 588,
    "uc": 589,
    "ach": 590,
    "arn": 591,
    "ĠSpot": 592,
    "Ġran": 593,
    "ile": 594,
    "ĠF": 595,
    "ie": 596,
    "ĠJ": 597,
    "ave": 598,
    "Ġagain": 599,
    "Ġsome": 600,
    "Ġlaug": 601,
    "dd": 602,
    "Ġhouse": 603,
    "Ġdown": 604,
    "Ġfl": 605,
    "king": 606,
    "Ġtook": 607,
    "Ġscared": 608,
    "Ġpr": 609,
    "ny": 610,
    "ure": 611,
    "Ġtoys": 612,
    "Ġlearn": 613,
    "ĠYou": 614,
    "if": 615,
    "Ġwill": 616,
    "Ġbox": 617,
    "ick": 618,
    "ret": 619,
    "ab": 620,
    "ep": 621,
    "Ġmy": 622,
    "Ġaround": 623,
    "Ġthings": 624,
    "Ġyour": 625,
    "oud": 626,
    "Ġbl": 627,
    "uck": 628,
    "Ġwhen": 629,
    "ish": 630,
    "Ġlived": 631,
    "Ġfe": 632,
    "Ġthen": 633,
    "Ġsun": 634,
    "as": 635,
    "Ġsw": 636,
    ",\"": 637,
    "Ġch": 638,
    "us": 639,
    "pped": 640,
    "Ġab": 641,
    "ĠMia": 642,
    "ank": 643,
    "Ġget": 644,
    "ucy": 645,
    "Tim": 646,
    "ump": 647,
    "Th": 648,
    "Ġlot": 649,
    "ist": 650,
    "oth": 651,
    "Ġtried": 652,
    "ap": 653,
    "Ġknow": 654,
    "Ġsays": 655,
    "Ġgot": 656,
    "ited": 657,
    "Ġwho": 658,
    "Ġkne": 659,
    "ust": 660,
    "Ġmany": 661,
    "nder": 662,
    "Ġint": 663,
    "Ġabout": 664,
    "Lily": 665,
    "Ġpret": 666,
    "Ġdec": 667,
    "Ġany": 668,
    "Ġred": 669,
    "ĠD": 670,
    "ive": 671,
    "Ġknew": 672,
    "ace": 673,
    "ous": 674,
    "Ġmore": 675,
    "ise": 676,
    "Ġcare": 677,
    "ally": 678,
    "Ġpic": 679,
    "au": 680,
    "qu": 681,
    "Ġhug": 682,
    "ĠLucy": 683,
    "Ġlearned": 684,
    "Ġpo": 685,
    "Ġwater": 686,
    "fter": 687,
    "Ġv": 688,
    "Ġbecame": 689,
    "Ġbest": 690,
    "ause": 691,
    "Ġop": 692,
    "Ġgre": 693,
    "Ġexc": 694,
    "urp": 695,
    "ways": 696,
    "âĢ": 697,
    "Ġoutside": 698,
    "Ġlaughed": 699,
    "Ġlook": 700,
    "Ġalways": 701,
    "Ġdecid": 702,
    "Ġshow": 703,
    "Ġun": 704,
    "ant": 705,
    "ĠBob": 706,
    "Ġroom": 707,
    "fe": 708,
    "Ġdecided": 709,
    "Ġho": 710,
    "Ġbecause": 711,
    "ĠSo": 712,
    "Ġinto": 713,
    "Ġeat": 714,
    "ite": 715,
    "Ġjump": 716,
    "ĠAnd": 717,
    "Ġpe": 718,
    "Ġboth": 719,
    "ers": 720,
    "ĠMom": 721,
    "Ġdad": 722,
    "They": 723,
    "udd": 724,
    "Ġke": 725,
    "Ġone": 726,
    "nn": 727,
    "Ġthis": 728,
    "Ġexcited": 729,
    "Ġfast": 730,
    "Ġnice": 731,
    "ĠE": 732,
    "Ġfeel": 733,
    "Tom": 734,
    "Yes": 735,
    "Ġrun": 736,
    "Ġlong": 737,
    "Ġtold": 738,
    "Ġsk": 739,
    "Ġam": 740,
    "urpr": 741,
    "our": 742,
    "Ġinside": 743,
    "ull": 744,
    "Ġtr": 745,
    "Ġsurpr": 746,
    "Ġmo": 747,
    "ink": 748,
    "Ġpretty": 749,
    "iny": 750,
    "Ġsor": 751,
    "Wh": 752,
    "Ġtake": 753,
    "og": 754,
    "Ġsl": 755,
    "Ġeach": 756,
    "Ġgave": 757,
    "Ġmuch": 758,
    "Ġgra": 759,
    "lew": 760,
    "nna": 761,
    "Ġrock": 762,
    "Ġhow": 763,
    "Ġstr": 764,
    "ara": 765,
    "imal": 766,
    "Ġanimal": 767,
    "ged": 768,
    "Ġneed": 769,
    "Ġthan": 770,
    "But": 771,
    "ven": 772,
    "etter": 773,
    "Ġtow": 774,
    "Ġor": 775,
    "ĠC": 776,
    "Ġunder": 777,
    "ess": 778,
    "Ġold": 779,
    "Ġsorry": 780,
    "ge": 781,
    "ised": 782,
    "ro": 783,
    "urt": 784,
    "Ġcle": 785,
    "Ġfish": 786,
    "Ġwalked": 787,
    "Ġclo": 788,
    "and": 789,
    "Ġbear": 790,
    "ft": 791,
    "ase": 792,
    "ast": 793,
    "Ġhand": 794,
    "urn": 795,
    "ĠWe": 796,
    "Ġkind": 797,
    "ĠHis": 798,
    "Ġte": 799,
    "here": 800,
    "Ġhappened": 801,
    "Ġjust": 802,
    "Ġflow": 803,
    "Ġfood": 804,
    "Ġlist": 805,
    "Ġdidn": 806,
    "Ġanimals": 807,
    "Ġhig": 808,
    "pl": 809,
    "Ġnear": 810,
    "Ġwat": 811,
    "Ġide": 812,
    "Ġtry": 813,
    "ched": 814,
    "Ġsky": 815,
    "ine": 816,
    "Ġsn": 817,
    "ving": 818,
    "Ġfi": 819,
    "rom": 820,
    "Ġus": 821,
    "Ġidea": 822,
    "Ġbetter": 823,
    "ĠAmy": 824,
    "Ġbug": 825,
    "Ġheard": 826,
    "gry": 827,
    "Ġits": 828,
    "Ġtw": 829,
    "Ġlet": 830,
    "pec": 831,
    "ate": 832,
    "able": 833,
    "ff": 834,
    "Ġen": 835,
    "Ġcareful": 836,
    "Ġshare": 837,
    "ex": 838,
    "Ġif": 839,
    "Thank": 840,
    "Mom": 841,
    "Ġfly": 842,
    "Ġstor": 843,
    "ial": 844,
    "Ġflew": 845,
    "more": 846,
    "Ġanymore": 847,
    "ĠTh": 848,
    "Ġspec": 849,
    "Ġspecial": 850,
    "ion": 851,
    "Ġcom": 852,
    "Ġlots": 853,
    "Ġnever": 854,
    "Ġby": 855,
    "lf": 856,
    "ream": 857,
    "Ġdan": 858,
    "Ġbu": 859,
    "Ġfo": 860,
    "Ġwind": 861,
    "Ġdon": 862,
    "Ġtal": 863,
    "Ġclean": 864,
    "ort": 865,
    "Ġgr": 866,
    "Ġlove": 867,
    "rm": 868,
    "ber": 869,
    "Ġend": 870,
    "ĊĊ": 871,
    "ĠThen": 872,
    "ople": 873,
    "Ġeven": 874,
    "Ġmag": 875,
    "Ġhard": 876,
    "Ġshiny": 877,
    "udden": 878,
    "Ġfore": 879,
    "Ġover": 880,
    "Ġcake": 881,
    "ak": 882,
    "Ġbook": 883,
    "Ġcol": 884,
    "Ġturn": 885,
    "Ġfam": 886,
    "Ġbad": 887,
    "Ġsafe": 888,
    "Ġafter": 889,
    "ady": 890,
    "ĠAnna": 891,
    "uddenly": 892,
    "Ġpeople": 893,
    "Ġproud": 894,
    "ĠEvery": 895,
    "Ġsurprised": 896,
    "pected": 897,
    "Let": 898,
    "Ġhigh": 899,
    "Ġcu": 900,
    "Ġhurt": 901,
    "Ġcome": 902,
    "imb": 903,
    "arden": 904,
    "Ġdoor": 905,
    "Ġgarden": 906,
    "bb": 907,
    "Ġground": 908,
    "Ġopened": 909,
    "Ġpicked": 910,
    "Ġloud": 911,
    "Ġclimb": 912,
    "expected": 913,
    "Ġunexpected": 914,
    "Ġgl": 915,
    "Ġche": 916,
    "ild": 917,
    "Ġim": 918,
    "As": 919,
    "Ġgive": 920,
    "Ġway": 921,
    "ail": 922,
    "'m": 923,
    "Ġthanked": 924,
    "Ġcolor": 925,
    "Ġblue": 926,
    "Ġstill": 927,
    "Ġever": 928,
    "Ġhugged": 929,
    "ĠFrom": 930,
    "Ġcall": 931,
    "Ġfar": 932,
    "ip": 933,
    "ĠHer": 934,
    "ĠSara": 935,
    "ĠWhen": 936,
    "No": 937,
    "Ġoff": 938,
    "Ġmagic": 939,
    "iz": 940,
    "ough": 941,
    "age": 942,
    "ummy": 943,
    "ĠK": 944,
    "Ġjumped": 945,
    "Ġshould": 946,
    "Ġfamily": 947,
    "Ġpar": 948,
    "ool": 949,
    "Ġkid": 950,
    "Ġsmile": 951,
    "hes": 952,
    "uff": 953,
    "Ġplace": 954,
    "kay": 955,
    "Ġwalk": 956,
    "Ġnow": 957,
    "ct": 958,
    "ĠIn": 959,
    "Ġgreat": 960,
    "em": 961,
    "ture": 962,
    "Ġqu": 963,
    "les": 964,
    "Ġstrong": 965,
    "Ġstay": 966,
    "Ġunt": 967,
    "Ġsto": 968,
    "aut": 969,
    "Ġforest": 970,
    "ane": 971,
    "Ġbra": 972,
    "itty": 973,
    "ĠP": 974,
    "Ġfrog": 975,
    "Ġbro": 976,
    "Ġuntil": 977,
    "oon": 978,
    "Ġbeaut": 979,
    "dy": 980,
    "Ġsqu": 981,
    "Ġstick": 982,
    "xt": 983,
    "Ġnext": 984,
    "Ġboat": 985,
    "lease": 986,
    "ning": 987,
    "Ġhappily": 988,
    "Ġlisten": 989,
    "aking": 990,
    "Ġkids": 991,
    "Ġtra": 992,
    "ies": 993,
    "iful": 994,
    "Ġbeautiful": 995,
    "Ġapp": 996,
    "th": 997,
    "Ġhelped": 998,
    "Ġdra": 999,
    "Ġshowed": 1000,
    "Ġclos": 1001,
    "be": 1002,
    "Ġimp": 1003,
    "Ġstory": 1004,
    "unny": 1005,
    "oy": 1006,
    "Ġwhile": 1007,
    "Ġtown": 1008,
    "rel": 1009,
    "pt": 1010,
    "Ġrain": 1011,
    "ress": 1012,
    "Ġpicture": 1013,
    "Ġbeing": 1014,
    "Ġrem": 1015,
    "Ġeveryone": 1016,
    "It": 1017,
    "ary": 1018,
    "ree": 1019,
    "Ġmor": 1020,
    "Ġhat": 1021,
    "Ġcalled": 1022,
    "Ġmet": 1023,
    "Ġstopped": 1024,
    "Ġad": 1025,
    "Ġgame": 1026,
    "Now": 1027,
    "He": 1028,
    "Can": 1029,
    "Ġangry": 1030,
    "ger": 1031,
    "uffy": 1032,
    "Ġopen": 1033,
    "Ġwo": 1034,
    "Ġtruck": 1035,
    "Ġkeep": 1036,
    "Ġsoft": 1037,
    "When": 1038,
    "Ġcry": 1039,
    "Ġyummy": 1040,
    "Ġlost": 1041,
    "Ġbed": 1042,
    "ĠLet": 1043,
    "ĠSally": 1044,
    "Ġwarm": 1045,
    "by": 1046,
    "vent": 1047,
    "Ġbrave": 1048,
    "Ġmouse": 1049,
    "ĠWh": 1050,
    "Ġate": 1051,
    "ĠKitty": 1052,
    "ished": 1053,
    "Ġde": 1054,
    "fore": 1055,
    "Ġdoll": 1056,
    "so": 1057,
    "Ġcouldn": 1058,
    "Ġwatch": 1059,
    "Ġleave": 1060,
    "Ġalso": 1061,
    "dded": 1062,
    "Ġfell": 1063,
    "Ġgreen": 1064,
    "Ġface": 1065,
    "Ġtwo": 1066,
    "gan": 1067,
    "iss": 1068,
    "Ġflowers": 1069,
    "bit": 1070,
    "What": 1071,
    "ĠR": 1072,
    "ble": 1073,
    "Ġnoise": 1074,
    "abbit": 1075,
    "irst": 1076,
    "owl": 1077,
    "Ġwhere": 1078,
    "az": 1079,
    "ock": 1080,
    "Ġsoon": 1081,
    "self": 1082,
    "Ġslide": 1083,
    "Ġrabbit": 1084,
    "Ġhole": 1085,
    "luffy": 1086,
    "Ġbefore": 1087,
    "irrel": 1088,
    "Ġpus": 1089,
    "ired": 1090,
    "Ġsat": 1091,
    "illy": 1092,
    "Ġhear": 1093,
    "Ġuse": 1094,
    "âĢĿ": 1095,
    "Hi": 1096,
    "Ġpa": 1097,
    "Ġkept": 1098,
    "âĢľ": 1099,
    "That": 1100,
    "Ġsquirrel": 1101,
    "ear": 1102,
    "Then": 1103,
    "ma": 1104,
    "Ġnodded": 1105,
    "Ġexpl": 1106,
    "Ġstore": 1107,
    "Ġcook": 1108,
    "Ġhands": 1109,
    "Look": 1110,
    "Ġbirds": 1111,
    "Ġpain": 1112,
    "Ġgoing": 1113,
    "Ġfunny": 1114,
    "Ġhaving": 1115,
    "day": 1116,
    "Ġsing": 1117,
    "aybe": 1118,
    "uch": 1119,
    "Ġey": 1120,
    "aug": 1121,
    "Ġcatch": 1122,
    "aught": 1123,
    "ĠCan": 1124,
    "ĠFluffy": 1125,
    "uit": 1126,
    "Ġyell": 1127,
    "Ġthink": 1128,
    "leep": 1129,
    "Ġcra": 1130,
    "Ġfin": 1131,
    "Ben": 1132,
    "Ġbre": 1133,
    "Ġfix": 1134,
    "Ġtired": 1135,
    "Ġbunny": 1136,
    "Ġused": 1137,
    "Ġlooking": 1138,
    "Ġbus": 1139,
    "ange": 1140,
    "air": 1141,
    "Ġwork": 1142,
    "Ġwr": 1143,
    "Ġour": 1144,
    "Ġpull": 1145,
    "We": 1146,
    "Ġthr": 1147,
    "thing": 1148,
    "ĠNow": 1149,
    "Ġwait": 1150,
    "Ġkit": 1151,
    "Ġsound": 1152,
    "ting": 1153,
    "Ġjo": 1154,
    "Ġhas": 1155,
    "ĠG": 1156,
    "Ġmean": 1157,
    "Ġpond": 1158,
    "ember": 1159,
    "Ġbeh": 1160,
    "Ġdr": 1161,
    "Ġsunny": 1162,
    "led": 1163,
    "Ġothers": 1164,
    "Ġask": 1165,
    "ng": 1166,
    "chen": 1167,
    "Ġkitchen": 1168,
    "Ġtalk": 1169,
    "Ġflo": 1170,
    "Ġdif": 1171,
    "rew": 1172,
    "Ġpie": 1173,
    "ĠJo": 1174,
    "Ġhead": 1175,
    "Ġreal": 1176,
    "Ġfirst": 1177,
    "Ġtri": 1178,
    "Ġmommy": 1179,
    "Ġeyes": 1180,
    "ello": 1181,
    "Ġimport": 1182,
    "Hello": 1183,
    "Ġfav": 1184,
    "ath": 1185,
    "joy": 1186,
    "Ġz": 1187,
    "Ġremember": 1188,
    "Ġright": 1189,
    "Ġflower": 1190,
    "Ġcon": 1191,
    "Ġmess": 1192,
    "Ġparty": 1193,
    "Ġcold": 1194,
    "ĠDo": 1195,
    "Ġvo": 1196,
    "Ġswe": 1197,
    "ious": 1198,
    "Ġsand": 1199,
    "ĠâĢľ": 1200,
    "ac": 1201,
    "orn": 1202,
    "Ġrace": 1203,
    "Ġcuri": 1204,
    "imes": 1205,
    "Ġimportant": 1206,
    "Ġduck": 1207,
    "Ġmoral": 1208,
    "Ġshared": 1209,
    "zy": 1210,
    "ount": 1211,
    "ĠJack": 1212,
    "Ġice": 1213,
    "Ġokay": 1214,
    "Ġadvent": 1215,
    "Ġworked": 1216,
    "llow": 1217,
    "At": 1218,
    "Ġenjoy": 1219,
    "Ġdress": 1220,
    "Ġbright": 1221,
    "Ġmaking": 1222,
    "Ġcurious": 1223,
    "Ġown": 1224,
    "Ġtall": 1225,
    "Ġdir": 1226,
    "Ġhop": 1227,
    "reed": 1228,
    "Ġhid": 1229,
    "Ġfavor": 1230,
    "Ġri": 1231,
    "hn": 1232,
    "Ġsleep": 1233,
    "Ġdis": 1234,
    "Wow": 1235,
    "Ġfavorite": 1236,
    "Ġthing": 1237,
    "Ġbegan": 1238,
    "Ġmon": 1239,
    "Ġbag": 1240,
    "Ġhill": 1241,
    "Don": 1242,
    "Ġcla": 1243,
    "Ġdraw": 1244,
    "Ġrest": 1245,
    "Ġhere": 1246,
    "Ġyard": 1247,
    "Ġtell": 1248,
    "ĠFin": 1249,
    "ster": 1250,
    "Ġwatched": 1251,
    "que": 1252,
    "Ġfollow": 1253,
    "Ġmove": 1254,
    "Ġbel": 1255,
    "ect": 1256,
    "Ġcut": 1257,
    "Ġnight": 1258,
    "Ġagreed": 1259,
    "Ġpick": 1260,
    "co": 1261,
    "Ġblock": 1262,
    "Ġhun": 1263,
    "aper": 1264,
    "lly": 1265,
    "Ġstop": 1266,
    "Ġbehind": 1267,
    "ĠThis": 1268,
    "Ġsurprise": 1269,
    "ied": 1270,
    "Ġsho": 1271,
    "Ġhot": 1272,
    "After": 1273,
    "Ġtable": 1274,
    "Ġgrass": 1275,
    "Ġworry": 1276,
    "Ġdark": 1277,
    "Ġtrees": 1278,
    "Ġvoice": 1279,
    "Ġwalking": 1280,
    "fere": 1281,
    "Ġfloor": 1282,
    "Ġfarm": 1283,
    "Ġlion": 1284,
    "Ġtop": 1285,
    "Ġdiffere": 1286,
    "Ġplease": 1287,
    "Ġru": 1288,
    "Ġsong": 1289,
    "Ġbutter": 1290,
    "Ġtail": 1291,
    "Ġsweet": 1292,
    "Max": 1293,
    "Ġshout": 1294,
    "Ġcolors": 1295,
    "Ġread": 1296,
    "ĠDad": 1297,
    "Ġlady": 1298,
    "Ġforg": 1299,
    "isy": 1300,
    "Ġleaves": 1301,
    "Ġcloser": 1302,
    "ign": 1303,
    "Ġcars": 1304,
    "Ġturned": 1305,
    "Ġneeded": 1306,
    "Ġtast": 1307,
    "Why": 1308,
    "aring": 1309,
    "Ġwood": 1310,
    "Ġcried": 1311,
    "Ġdifferent": 1312,
    "Ġlaugh": 1313,
    "Ġdel": 1314,
    "Ġpiece": 1315,
    "âĢĻ": 1316,
    "ered": 1317,
    "ĠMr": 1318,
    "Ġroll": 1319,
    "Ġadventure": 1320,
    "Ġfire": 1321,
    "Ġdoes": 1322,
    "ike": 1323,
    "Ġcr": 1324,
    "Ġhungry": 1325,
    "Ġhair": 1326,
    "ĠSuddenly": 1327,
    "Ġpaper": 1328,
    "Ġfeeling": 1329,
    "Ġyellow": 1330,
    "Ġfull": 1331,
    "bo": 1332,
    "Ġprin": 1333,
    "Sue": 1334,
    "Ġtouch": 1335,
    "ĠAs": 1336,
    "Anna": 1337,
    "Sam": 1338,
    "Ġwet": 1339,
    "Ġfriendly": 1340,
    "Ġper": 1341,
    "oom": 1342,
    "ken": 1343,
    "cked": 1344,
    "ached": 1345,
    "Ġswing": 1346,
    "Ġfruit": 1347,
    "ient": 1348,
    "Ġbroken": 1349,
    "Ġready": 1350,
    "bye": 1351,
    "ppy": 1352,
    "Ġprom": 1353,
    "ĠThat": 1354,
    "Ġanother": 1355,
    "Ġlight": 1356,
    "Ġpretend": 1357,
    "Ġdance": 1358,
    "ater": 1359,
    "Ġclimbed": 1360,
    "where": 1361,
    "Ġlistened": 1362,
    "ĠBobo": 1363,
    "Ġdanc": 1364,
    "Ġrunning": 1365,
    "Ġonly": 1366,
    "Ġplan": 1367,
    "Ġgone": 1368,
    "Ġswim": 1369,
    "bbed": 1370,
    "Suddenly": 1371,
    "sh": 1372,
    "Ġtrain": 1373,
    "ila": 1374,
    "ndma": 1375,
    "Sara": 1376,
    "ĠJane": 1377,
    "Ġclose": 1378,
    "av": 1379,
    "She": 1380,
    "Ġsmell": 1381,
    "So": 1382,
    "aby": 1383,
    "Ġamaz": 1384,
    "Ġhold": 1385,
    "Ġblocks": 1386,
    "Ġwonder": 1387,
    "ĠTimmy": 1388,
    "Ġrepl": 1389,
    "ĠAll": 1390,
    "Ġbutterf": 1391,
    "Ġsees": 1392,
    "Ġreached": 1393,
    "Ġwall": 1394,
    "Ġpu": 1395,
    "oney": 1396,
    "red": 1397,
    "Ġslow": 1398,
    "Ġhelping": 1399,
    "Ġdri": 1400,
    "Ġcream": 1401,
    "Ġcool": 1402,
    "Ġglad": 1403,
    "af": 1404,
    "Ġant": 1405,
    "Ġless": 1406,
    "Ġbeen": 1407,
    "Ġgoodbye": 1408,
    "Ġac": 1409,
    "Ġfight": 1410,
    "ather": 1411,
    "Mia": 1412,
    "Ġpushed": 1413,
    "iced": 1414,
    "Ġfair": 1415,
    "Ġmust": 1416,
    "Ġhide": 1417,
    "Ġmoment": 1418,
    "Ġwindow": 1419,
    "ĠO": 1420,
    "Ġsit": 1421,
    "Ġballoon": 1422,
    "Ġsnow": 1423,
    "Ġchild": 1424,
    "Ġexplore": 1425,
    "ĠEveryone": 1426,
    "Ġar": 1427,
    "Ġwished": 1428,
    "Ġbaby": 1429,
    "Ġdone": 1430,
    "Ġwag": 1431,
    "Ġste": 1432,
    "Ġbuy": 1433,
    "Ġstuck": 1434,
    "Ġperf": 1435,
    "Ġthank": 1436,
    "Ġmight": 1437,
    "icy": 1438,
    "Ġname": 1439,
    "ized": 1440,
    "Ġtrying": 1441,
    "Ġbit": 1442,
    "Ġcoming": 1443,
    "Ġbar": 1444,
    "Ġquick": 1445,
    "Ġfall": 1446,
    "Ġapple": 1447,
    "ash": 1448,
    "Ġscary": 1449,
    "Ġlooks": 1450,
    "Ġbuild": 1451,
    "Ġdoing": 1452,
    "Ġwin": 1453,
    "Ġunderst": 1454,
    "aisy": 1455,
    "Ġdin": 1456,
    "Ġdream": 1457,
    "Ġdirty": 1458,
    "Ġheld": 1459,
    "ames": 1460,
    "Ġbooks": 1461,
    "Ġmar": 1462,
    "In": 1463,
    "Ġbutterfly": 1464,
    "Ġleft": 1465,
    "Ġshouted": 1466,
    "Ġcount": 1467,
    "Ġreplied": 1468,
    "avy": 1469,
    "Ġreach": 1470,
    "Ġtiny": 1471,
    "Ġthrough": 1472,
    "ott": 1473,
    "Ġdro": 1474,
    "Ġwhy": 1475,
    "Ġair": 1476,
    "Ġbran": 1477,
    "Ġland": 1478,
    "key": 1479,
    "Ġthree": 1480,
    "Ġpulled": 1481,
    "Ġspl": 1482,
    "Ġgrow": 1483,
    "Ġtreat": 1484,
    "Ġbrother": 1485,
    "Ġwise": 1486,
    "Ġwoods": 1487,
    "Ġsure": 1488,
    "'re": 1489,
    "Ġchair": 1490,
    "ix": 1491,
    "Ġmat": 1492,
    "ins": 1493,
    "Ġseen": 1494,
    "Ġpink": 1495,
    "Ġclapped": 1496,
    "Ġplant": 1497,
    "ely": 1498,
    "Ġowl": 1499,
    "Ġcup": 1500,
    "ield": 1501,
    "Ġsometimes": 1502,
    "andy": 1503,
    "Ġfill": 1504,
    "Ġcloud": 1505,
    "ask": 1506,
    "Ġswam": 1507,
    "outh": 1508,
    "Ġjob": 1509,
    "Ġcolorful": 1510,
    "Ġremembered": 1511,
    "Ġbigger": 1512,
    "Ġnest": 1513,
    "Ġmouth": 1514,
    "pe": 1515,
    "Okay": 1516,
    "Ġlesson": 1517,
    "Ġjoin": 1518,
    "Ġcre": 1519,
    "ph": 1520,
    "ĠThere": 1521,
    "oup": 1522,
    "room": 1523,
    "art": 1524,
    "Ġwaved": 1525,
    "uddy": 1526,
    "Ġgrabbed": 1527,
    "Ġstayed": 1528,
    "Oh": 1529,
    "Ġpaint": 1530,
    "This": 1531,
    "Ġclot": 1532,
    "Ġcont": 1533,
    "Ġclothes": 1534,
    "Ġve": 1535,
    "ower": 1536,
    "ĠAfter": 1537,
    "Ġwaited": 1538,
    "Ġquickly": 1539,
    "cle": 1540,
    "Ġword": 1541,
    "Ġbroke": 1542,
    "ucky": 1543,
    "Ġgames": 1544,
    "Ġcast": 1545,
    "Ġblew": 1546,
    "Ġgent": 1547,
    "ĠMommy": 1548,
    "Ġenjoyed": 1549,
    "Ġnoticed": 1550,
    "Jo": 1551,
    "ries": 1552,
    "ation": 1553,
    "Ġset": 1554,
    "Ġlikes": 1555,
    "Ġpictures": 1556,
    "ton": 1557,
    "de": 1558,
    "Ġsea": 1559,
    "Ġheavy": 1560,
    "Ġmus": 1561,
    "Ġalone": 1562,
    "Ġgif": 1563,
    "asure": 1564,
    "Ġanything": 1565,
    "Ġspot": 1566,
    "Ġmiss": 1567,
    "Ġhopped": 1568,
    "Ġworld": 1569,
    "Ġturns": 1570,
    "orm": 1571,
    "Ġyear": 1572,
    "der": 1573,
    "Ġbott": 1574,
    "Ġpat": 1575,
    "Ġpot": 1576,
    "Ġpen": 1577,
    "lc": 1578,
    "Her": 1579,
    "Ġmix": 1580,
    "Ġarm": 1581,
    "Ġbike": 1582,
    "Ġtight": 1583,
    "Ġeverywhere": 1584,
    "Ġwon": 1585,
    "Lucy": 1586,
    "Ġtower": 1587,
    "Ġthrew": 1588,
    "Ġhimself": 1589,
    "Ġfollowed": 1590,
    "ĠBuddy": 1591,
    "Ġride": 1592,
    "man": 1593,
    "less": 1594,
    "Ġju": 1595,
    "Ġje": 1596,
    "amp": 1597,
    "Bob": 1598,
    "ape": 1599,
    "Ġcomp": 1600,
    "Ġkey": 1601,
    "row": 1602,
    "\".": 1603,
    "Ġwhite": 1604,
    "ctor": 1605,
    "Ġwrong": 1606,
    "ĠDaisy": 1607,
    "Ġmakes": 1608,
    "ĠWhat": 1609,
    "Ġbreak": 1610,
    "Ġblack": 1611,
    "arent": 1612,
    "ee": 1613,
    "ner": 1614,
    "Spot": 1615,
    "Do": 1616,
    "Ġdeep": 1617,
    "thy": 1618,
    "Ġmusic": 1619,
    "Ġpol": 1620,
    "Ġdelic": 1621,
    "cess": 1622,
    "ued": 1623,
    "Ġforgot": 1624,
    "Ġbee": 1625,
    "Ġparent": 1626,
    "Ġcastle": 1627,
    "ves": 1628,
    "olly": 1629,
    "Ġem": 1630,
    "iet": 1631,
    "Ġwear": 1632,
    "Ġhit": 1633,
    "ister": 1634,
    "oun": 1635,
    "Ġquiet": 1636,
    "Ġround": 1637,
    "ance": 1638,
    "Ġstu": 1639,
    "Ġdanced": 1640,
    "Ġvis": 1641,
    "ully": 1642,
    "Ġwants": 1643,
    "Ġleaf": 1644,
    "Ġmonster": 1645,
    "Ġnap": 1646,
    "ĠJohn": 1647,
    "Ġunderstand": 1648,
    "ang": 1649,
    "Ġbowl": 1650,
    "os": 1651,
    "rot": 1652,
    "ren": 1653,
    "Ġbor": 1654,
    "Ġtalked": 1655,
    "itten": 1656,
    "Ġdry": 1657,
    "Ġfaster": 1658,
    "Ġcookies": 1659,
    "Ġbrought": 1660,
    "fully": 1661,
    "Ġleg": 1662,
    "ross": 1663,
    "Ġmum": 1664,
    "zz": 1665,
    "Ġside": 1666,
    "ts": 1667,
    "From": 1668,
    "Ġsign": 1669,
    "ĠInside": 1670,
    "Ġsmart": 1671,
    "cy": 1672,
    "Ġrocks": 1673,
    "Ġsomeone": 1674,
    "His": 1675,
    "Ġpoin": 1676,
    "Ġsec": 1677,
    "Ġsharing": 1678,
    "Ġfox": 1679,
    "Ġwell": 1680,
    "Ġres": 1681,
    "Ġrel": 1682,
    "Ġhappen": 1683,
    "Ġbutton": 1684,
    "Ġbranch": 1685,
    "ĠLila": 1686,
    "Ġreally": 1687,
    "Ġfinished": 1688,
    "ence": 1689,
    "ards": 1690,
    "Ġdinner": 1691,
    "Ġsister": 1692,
    "Ġflying": 1693,
    "eddy": 1694,
    "Ġcontin": 1695,
    "Ġworried": 1696,
    "Ġele": 1697,
    "ĠTo": 1698,
    "Ġvisit": 1699,
    "ĠMaybe": 1700,
    "Ġbeach": 1701,
    "Ġque": 1702,
    "Ġsecret": 1703,
    "Ġel": 1704,
    "ĠSarah": 1705,
    "Ġking": 1706,
    "John": 1707,
    "gy": 1708,
    "Ġtoday": 1709,
    "Ġperfect": 1710,
    "Ġriver": 1711,
    "Ġeverything": 1712,
    "Ġsilly": 1713,
    "Ġshin": 1714,
    "ĠJoe": 1715,
    "Ġdanger": 1716,
    "ipp": 1717,
    "Ġchildren": 1718,
    "Ġgu": 1719,
    "ĠSoon": 1720,
    "Ġfield": 1721,
    "Ġfilled": 1722,
    "Ġfur": 1723,
    "Ġelse": 1724,
    "Ġsmiles": 1725,
    "Ġwelc": 1726,
    "ĠAt": 1727,
    "Ġwish": 1728,
    "ĠEm": 1729,
    "While": 1730,
    "Ġsang": 1731,
    "Ġgi": 1732,
    "ze": 1733,
    "Ġpudd": 1734,
    "Ġsnack": 1735,
    "Ġeating": 1736,
    "Ġrealized": 1737,
    "Ġpieces": 1738,
    "Ġpromised": 1739,
    "ord": 1740,
    "Ġspr": 1741,
    "Ġpig": 1742,
    "Ġfree": 1743,
    "Ġcontinued": 1744,
    "Ġbite": 1745,
    "ead": 1746,
    "Ġparents": 1747,
    "Ġcarefully": 1748,
    "ated": 1749,
    "itting": 1750,
    "Ġear": 1751,
    "Just": 1752,
    "Ġjar": 1753,
    "Maybe": 1754,
    "Ġcow": 1755,
    "Amy": 1756,
    "Ġblank": 1757,
    "Ġdrag": 1758,
    "stead": 1759,
    "Ġorange": 1760,
    "Ġmud": 1761,
    "Ġcrying": 1762,
    "Ġblanket": 1763,
    "Ġenough": 1764,
    "Ġrolled": 1765,
    "cket": 1766,
    "Ġsoup": 1767,
    "Ġsail": 1768,
    "Ġpurp": 1769,
    "imi": 1770,
    "Ġyes": 1771,
    "ale": 1772,
    "Ġdrink": 1773,
    "Ġsnake": 1774,
    "ses": 1775,
    "Ġboun": 1776,
    "Ġpet": 1777,
    "Ġcrab": 1778,
    "Ġthrow": 1779,
    "Ġlaughing": 1780,
    "Ġfairy": 1781,
    "Ġwords": 1782,
    "Ġamazing": 1783,
    "Ġbath": 1784,
    "ich": 1785,
    "Ġpurple": 1786,
    "ĠZ": 1787,
    "Ġwithout": 1788,
    "ire": 1789,
    "Ġbottle": 1790,
    "ĠBilly": 1791,
    "Ġgift": 1792,
    "Ġgrandma": 1793,
    "Fin": 1794,
    "used": 1795,
    "ons": 1796,
    "Ġpast": 1797,
    "Ġmoney": 1798,
    "iver": 1799,
    "fort": 1800,
    "Ġmail": 1801,
    "ĠGra": 1802,
    "Ġbarked": 1803,
    "Ġwagged": 1804,
    "Ġatt": 1805,
    "chool": 1806,
    "Ġmonkey": 1807,
    "Ġdoctor": 1808,
    "unch": 1809,
    "Ġbrown": 1810,
    "Ġmoved": 1811,
    "ises": 1812,
    "Ġasks": 1813,
    "Ġgetting": 1814,
    "Ġclosed": 1815,
    "Ġwhe": 1816,
    "Ġwelcome": 1817,
    "Ġsu": 1818,
    "Ġcandy": 1819,
    "Ġschool": 1820,
    "Ġmorning": 1821,
    "Ġowner": 1822,
    "gg": 1823,
    "Ġlon": 1824,
    "Ġmother": 1825,
    "Ġhigher": 1826,
    "Ġsitting": 1827,
    "Ġtreasure": 1828,
    ".âĢĿ": 1829,
    "Ġsmo": 1830,
    "!âĢĿ": 1831,
    "Ġdangerous": 1832,
    "Ġlonely": 1833,
    "ĠCh": 1834,
    "Ġliving": 1835,
    "Ġapples": 1836,
    "ush": 1837,
    "Ġshop": 1838,
    "ased": 1839,
    "Ġstrange": 1840,
    "vel": 1841,
    "Ġshining": 1842,
    "Ġroad": 1843,
    "ere": 1844,
    "ĠTommy": 1845,
    "Ġcreat": 1846,
    "una": 1847,
    "Ġpaw": 1848,
    "Ġra": 1849,
    "ey": 1850,
    "Ġshoes": 1851,
    "Ġpre": 1852,
    "ible": 1853,
    "Ġ-": 1854,
    "Ġstre": 1855,
    "Ġtalking": 1856,
    "althy": 1857,
    "Ġcaught": 1858,
    "Ġegg": 1859,
    "ol": 1860,
    "Ġpass": 1861,
    "me": 1862,
    "Ġlake": 1863,
    "Ġruns": 1864,
    "Ġbuck": 1865,
    "Ġletter": 1866,
    "Ġwings": 1867,
    "Ġchee": 1868,
    "fish": 1869,
    "Ġmad": 1870,
    "Ġfan": 1871,
    "asket": 1872,
    "Ġbasket": 1873,
    "ass": 1874,
    "Ġdragon": 1875,
    "app": 1876,
    "Mommy": 1877,
    "set": 1878,
    "cks": 1879,
    "Ġstone": 1880,
    "Ġthinks": 1881,
    "Ġstand": 1882,
    "Ġdelicious": 1883,
    "Ġnose": 1884,
    "Ġpuddle": 1885,
    "Ġtom": 1886,
    "ĠBl": 1887,
    "ĠMimi": 1888,
    "Ġbelie": 1889,
    "Ġfarmer": 1890,
    "Ġsame": 1891,
    "Ġyears": 1892,
    "board": 1893,
    "Ġteddy": 1894,
    "Ġbat": 1895,
    "isk": 1896,
    "itch": 1897,
    "Ġmine": 1898,
    "Ġsear": 1899,
    "Ġcoat": 1900,
    "ches": 1901,
    "igh": 1902,
    "Ġdays": 1903,
    "Ġbring": 1904,
    "Ġgentle": 1905,
    "Ġfit": 1906,
    "Ġstart": 1907,
    "Ġfinally": 1908,
    "Ġwhist": 1909,
    "Ġcray": 1910,
    "igg": 1911,
    "Ġscream": 1912,
    "Ġkite": 1913,
    "Ġpill": 1914,
    "phant": 1915,
    "arm": 1916,
    "Ġvill": 1917,
    "Ġcho": 1918,
    "Ġsinging": 1919,
    "ella": 1920,
    "sw": 1921,
    "ined": 1922,
    "Ġtasty": 1923,
    "Ġph": 1924,
    "Ġben": 1925,
    "Ġtrou": 1926,
    "Ġshell": 1927,
    "Ġherself": 1928,
    "Ġhoped": 1929,
    "Ġansw": 1930,
    "Ġwore": 1931,
    "Ġswings": 1932,
    "sy": 1933,
    "Ġhor": 1934,
    "Ġbelong": 1935,
    "Please": 1936,
    "Ġpush": 1937,
    "Ġbush": 1938,
    "iskers": 1939,
    "Ġcarrot": 1940,
    "Ġarri": 1941,
    "aughty": 1942,
    "Ġteach": 1943,
    "bow": 1944,
    "ract": 1945,
    "Ġnaughty": 1946,
    "Ġelephant": 1947,
    "Ġdropped": 1948,
    "Ġshap": 1949,
    "ier": 1950,
    "Ġcoll": 1951,
    "sc": 1952,
    "Ġteac": 1953,
    "emy": 1954,
    "Ġwoke": 1955,
    "ball": 1956,
    "Ġpile": 1957,
    "Ġhiding": 1958,
    "Ġcour": 1959,
    "isa": 1960,
    "erry": 1961,
    "Ġtouc": 1962,
    "Ġmin": 1963,
    "Ġpuppy": 1964,
    "'ll": 1965,
    "Ġseem": 1966,
    "llie": 1967,
    "Ġtwins": 1968,
    "ama": 1969,
    "Ġlunch": 1970,
    "Ġbow": 1971,
    "Ġsack": 1972,
    "Ġpers": 1973,
    "Ġcourse": 1974,
    "Ġcheered": 1975,
    "Ġshapes": 1976,
    "ĠJen": 1977,
    "Ġgrew": 1978,
    "fused": 1979,
    "Ġrope": 1980,
    "Ġvillage": 1981,
    "irth": 1982,
    "irthday": 1983,
    "Ġjuice": 1984,
    "ipped": 1985,
    "Ġrainbow": 1986,
    "Ġspin": 1987,
    "OK": 1988,
    "Ġshook": 1989,
    "Jack": 1990,
    "Ġspoon": 1991,
    "Ġbench": 1992,
    "Ġstreet": 1993,
    "Ġfence": 1994,
    "Ġcute": 1995,
    "ĠFred": 1996,
    "Ġrob": 1997,
    "Ġnut": 1998,
    "Ġcheese": 1999,
    "Ġprob": 2000,
    "Ġtouched": 2001,
    "idge": 2002,
    "col": 2003,
    "Ġjoy": 2004,
    "ĠWhiskers": 2005,
    "Ġarrived": 2006,
    "Ġseed": 2007,
    "Ġwar": 2008,
    "Ġteacher": 2009,
    "Ġcorn": 2010,
    "Good": 2011,
    "Ġforever": 2012,
    "Ġable": 2013,
    "Ġbell": 2014,
    "Ġfew": 2015,
    "Ġcarry": 2016,
    "Ġmost": 2017,
    "Ġplane": 2018,
    "ĠBlue": 2019,
    "lem": 2020,
    "Ġeas": 2021,
    "Ġsounds": 2022,
    "lla": 2023,
    "Ġdes": 2024,
    "Ġspo": 2025,
    "Ġproblem": 2026,
    "Ġbirthday": 2027,
    "Ġpower": 2028,
    "Ġinc": 2029,
    "umb": 2030,
    "br": 2031,
    "ĊĠ": 2032,
    "Ġbugs": 2033,
    "ilk": 2034,
    "Ġwonderful": 2035,
    "Ġdolls": 2036,
    "Ġbusy": 2037,
    "ato": 2038,
    "irp": 2039,
    "eb": 2040,
    "Ġwra": 2041,
    "Ġpromise": 2042,
    "ĠThank": 2043,
    "Ġfeels": 2044,
    "ian": 2045,
    "ĠEmma": 2046,
    "eter": 2047,
    "Ġbread": 2048,
    "Ġneck": 2049,
    "Finally": 2050,
    "Ġmilk": 2051,
    "Ġrobot": 2052,
    "Ġrec": 2053,
    "Ġshy": 2054,
    "ountain": 2055,
    "Ġkiss": 2056,
    "irt": 2057,
    "Ġheart": 2058,
    "Ġband": 2059,
    "Ġcave": 2060,
    "Ġpocket": 2061,
    "ub": 2062,
    "Ġhelpful": 2063,
    "gly": 2064,
    "Ġslowly": 2065,
    "Ġbelieve": 2066,
    "Ġshake": 2067,
    "umpy": 2068,
    "eared": 2069,
    "Ġpatient": 2070,
    "Ġpop": 2071,
    "Ġob": 2072,
    "arp": 2073,
    "Ġlive": 2074,
    "Ġstorm": 2075,
    "Ġholding": 2076,
    "Ġugly": 2077,
    "Ġtowards": 2078,
    "Ġupset": 2079,
    "Ġturt": 2080,
    "Ġshr": 2081,
    "adow": 2082,
    "Ġcover": 2083,
    "Ġkitten": 2084,
    "ost": 2085,
    "ĠRemy": 2086,
    "Ġsharp": 2087,
    "Ġdisapp": 2088,
    "Ġstories": 2089,
    "Ġsuc": 2090,
    "Ġhoney": 2091,
    "ove": 2092,
    "ĠBella": 2093,
    "read": 2094,
    "Ġnoises": 2095,
    "ĠLe": 2096,
    "Ġcir": 2097,
    "Ġballs": 2098,
    "Ġspark": 2099,
    "Ġgray": 2100,
    "Ġdist": 2101,
    "Ġdirt": 2102,
    "oggy": 2103,
    "Ġlate": 2104,
    "Ġdriver": 2105,
    "Ġseat": 2106,
    "Ġbucket": 2107,
    "Ġmeet": 2108,
    "Ġyoung": 2109,
    "Ġamazed": 2110,
    "Ġturtle": 2111,
    "alm": 2112,
    "Ġspid": 2113,
    "Ġtreats": 2114,
    "Ġmagical": 2115,
    "unt": 2116,
    "ator": 2117,
    "Ġglow": 2118,
    "Ġseek": 2119,
    "Ġzoom": 2120,
    "Ġlem": 2121,
    "Ġsandw": 2122,
    "fortable": 2123,
    "umber": 2124,
    "Ġtrip": 2125,
    "Ġmist": 2126,
    "ourn": 2127,
    "Ġsplas": 2128,
    "Ġmark": 2129,
    "Ġjourn": 2130,
    "Ġfold": 2131,
    "Ġmach": 2132,
    "Ġpuzz": 2133,
    "Ġpart": 2134,
    "ling": 2135,
    "Ġhorse": 2136,
    "Ġorgan": 2137,
    "Ġwild": 2138,
    "Ġprincess": 2139,
    "pping": 2140,
    "oose": 2141,
    "Ġcookie": 2142,
    "Sure": 2143,
    "ens": 2144,
    "Ġhugs": 2145,
    "ĠMark": 2146,
    "Ġtaking": 2147,
    "ung": 2148,
    "Ġwheel": 2149,
    "epend": 2150,
    "Ġcloth": 2151,
    "ĠLisa": 2152,
    "Ġsug": 2153,
    "Ġinstead": 2154,
    "Ġbubb": 2155,
    "Ġstring": 2156,
    "Ġnet": 2157,
    "Ġdrove": 2158,
    "iling": 2159,
    "Ġrude": 2160,
    "Ġhuge": 2161,
    "ĠJim": 2162,
    "Ġcoin": 2163,
    "Ġstars": 2164,
    "Ġfighting": 2165,
    "Be": 2166,
    "Ġspicy": 2167,
    "Ġlucky": 2168,
    "Of": 2169,
    "Ġcraw": 2170,
    "Hey": 2171,
    "Ġbone": 2172,
    "Ġinv": 2173,
    "ĠGrandma": 2174,
    "ors": 2175,
    "not": 2176,
    "Ġca": 2177,
    "pper": 2178,
    "Ġforget": 2179,
    "up": 2180,
    "Ġdi": 2181,
    "aur": 2182,
    "Ġsal": 2183,
    "ĠFinally": 2184,
    "Ġcannot": 2185,
    "Ġwhistle": 2186,
    "Ġcard": 2187,
    "Ġsick": 2188,
    "Ġpath": 2189,
    "Ġcou": 2190,
    "Ġspider": 2191,
    "Ġwide": 2192,
    "Lila": 2193,
    "Ġfoot": 2194,
    "Ġsnowman": 2195,
    "Ġsongs": 2196,
    "Ġlife": 2197,
    "Ġpillow": 2198,
    "ize": 2199,
    "ular": 2200,
    "ĠJust": 2201,
    "Later": 2202,
    "est": 2203,
    "ĠAnn": 2204,
    "ert": 2205,
    "Ġfixed": 2206,
    "Ġgiant": 2207,
    "oph": 2208,
    "rill": 2209,
    "Ġnod": 2210,
    "Ġboss": 2211,
    "Ġlast": 2212,
    "Ġcomes": 2213,
    "Ġjoke": 2214,
    "Ġmoon": 2215,
    "Ġtaste": 2216,
    "den": 2217,
    "Ġmachine": 2218,
    "Ġgrumpy": 2219,
    "Ġwave": 2220,
    "Ġthin": 2221,
    "Ġdrive": 2222,
    "Ġcart": 2223,
    "Ġash": 2224,
    "Ġser": 2225,
    "Ġgrab": 2226,
    "Ġpeace": 2227,
    "lower": 2228,
    "Ġdaddy": 2229,
    "ĠOn": 2230,
    "ĠLeo": 2231,
    "ery": 2232,
    "Ġsel": 2233,
    "Ġshelf": 2234,
    "Ġhidden": 2235,
    "erest": 2236,
    "Ġsuddenly": 2237,
    "Ġwasn": 2238,
    "Ġwrite": 2239,
    "Ġlanded": 2240,
    "Ġconfused": 2241,
    "Ġring": 2242,
    "Ġchange": 2243,
    "Ġworm": 2244,
    "Ġinterest": 2245,
    "Ġchased": 2246,
    "oop": 2247,
    "Ġfruits": 2248,
    "Ġsour": 2249,
    "ity": 2250,
    "Ġmyster": 2251,
    "Ġbark": 2252,
    "Ġrad": 2253,
    "Ġsmooth": 2254,
    "ĠCome": 2255,
    "Ġadventures": 2256,
    "Ġval": 2257,
    "Ġstepped": 2258,
    "Ġfle": 2259,
    "ope": 2260,
    "Ġoven": 2261,
    "Ġtakes": 2262,
    "Ġmissed": 2263,
    "Ġselfish": 2264,
    "kin": 2265,
    "Ġsheep": 2266,
    "Ġmessy": 2267,
    "To": 2268,
    "Ġacross": 2269,
    "Ġent": 2270,
    "Ġexp": 2271,
    "to": 2272,
    "Ġce": 2273,
    "Ġlater": 2274,
    "elly": 2275,
    "ĠN": 2276,
    "ife": 2277,
    "Ġsticks": 2278,
    "Ġtie": 2279,
    "St": 2280,
    "ever": 2281,
    "ĠLuna": 2282,
    "Ġstep": 2283,
    "Ġbought": 2284,
    "Ġdrew": 2285,
    "Ġtea": 2286,
    "pect": 2287,
    "Ġban": 2288,
    "irpy": 2289,
    "box": 2290,
    "?âĢĿ": 2291,
    "Ġwash": 2292,
    "Ġlay": 2293,
    "Ġpour": 2294,
    "Ġbeak": 2295,
    "ose": 2296,
    "Ġjog": 2297,
    "Ġgrate": 2298,
    "Ġducks": 2299,
    "Ġspe": 2300,
    "Ġlegs": 2301,
    "ugg": 2302,
    "Ġfil": 2303,
    "ĠBu": 2304,
    "Ġemp": 2305,
    "mer": 2306,
    "Ġhope": 2307,
    "Ġempty": 2308,
    "Ġslid": 2309,
    "Ġfeather": 2310,
    "Ġsleepy": 2311,
    "Ġdrum": 2312,
    "amed": 2313,
    "ars": 2314,
    "eth": 2315,
    "Ġzoo": 2316,
    "Ġpan": 2317,
    "Ġphone": 2318,
    "Ġgrateful": 2319,
    "Ġfing": 2320,
    "ions": 2321,
    "Ġlemon": 2322,
    "let": 2323,
    "ĠCat": 2324,
    "Ġclever": 2325,
    "ĠMolly": 2326,
    "Ġsmelly": 2327,
    "Ġimag": 2328,
    "Ġsplash": 2329,
    "Ġinteresting": 2330,
    "ĠJill": 2331,
    "Ġsave": 2332,
    "Ġchick": 2333,
    "Ġcalm": 2334,
    "Ġmed": 2335,
    "Ġwatching": 2336,
    "Soon": 2337,
    "izzy": 2338,
    "izz": 2339,
    "Ġplate": 2340,
    "Ġign": 2341,
    "yard": 2342,
    "Ġclouds": 2343,
    "Ġbanan": 2344,
    "Ġline": 2345,
    "Ġfaces": 2346,
    "Ġba": 2347,
    "Ġact": 2348,
    "Ġlift": 2349,
    "Ġthough": 2350,
    "Ġwolf": 2351,
    "Ġbackyard": 2352,
    "wel": 2353,
    "Ġseemed": 2354,
    "Ġdogs": 2355,
    "Ġspray": 2356,
    "Come": 2357,
    "Ġprot": 2358,
    "Ġwhole": 2359,
    "Ġmot": 2360,
    "Ġfancy": 2361,
    "ĠDaddy": 2362,
    "Ġquest": 2363,
    "Ġarms": 2364,
    "Ġpuzzle": 2365,
    "Ġhealthy": 2366,
    "Ġsupp": 2367,
    "ward": 2368,
    "Ġfinish": 2369,
    "erly": 2370,
    "Ġalong": 2371,
    "llo": 2372,
    "Ġrocket": 2373,
    "Ġexplain": 2374,
    "dge": 2375,
    "Ġeasy": 2376,
    "Ġjewel": 2377,
    "ont": 2378,
    "Ġpract": 2379,
    "Ġjelly": 2380,
    "ĠChirpy": 2381,
    "Ġtid": 2382,
    "Ġfake": 2383,
    "Ġcrayons": 2384,
    "Ġwondered": 2385,
    "Ġmaybe": 2386,
    "Ġscar": 2387,
    "Ġship": 2388,
    "Ġnothing": 2389,
    "onest": 2390,
    "Ġemb": 2391,
    "iger": 2392,
    "Ġpool": 2393,
    "Ġlonger": 2394,
    "Ġanyone": 2395,
    "ĠBe": 2396,
    "ĠJerry": 2397,
    "ually": 2398,
    "Ġfront": 2399,
    "Ġworking": 2400,
    "Ġgives": 2401,
    "irr": 2402,
    "Ġpack": 2403,
    "Ġsuch": 2404,
    "ĠBunny": 2405,
    "ocked": 2406,
    "ment": 2407,
    "Ġbossy": 2408,
    "ĠDoggy": 2409,
    "Ġtrouble": 2410,
    "Ġsmelled": 2411,
    "Ġsaved": 2412,
    "Ġpin": 2413,
    "rass": 2414,
    "Ġneigh": 2415,
    "arrass": 2416,
    "iting": 2417,
    "Ġhonest": 2418,
    "Ġav": 2419,
    "arge": 2420,
    "Ġembarrass": 2421,
    "Ġvan": 2422,
    "Ġforgive": 2423,
    "Ġtidy": 2424,
    "Ġweak": 2425,
    "urse": 2426,
    "Ġputs": 2427,
    "unk": 2428,
    "Ġkick": 2429,
    "Ġshirt": 2430,
    "ĠWith": 2431,
    "Ġmind": 2432,
    "ĠOllie": 2433,
    "Ġneighb": 2434,
    "Ġplants": 2435,
    "Ġsol": 2436,
    "ĠMomo": 2437,
    "Ġgently": 2438,
    "Ġcozy": 2439,
    "orrow": 2440,
    "ming": 2441,
    "Ġexplor": 2442,
    "sp": 2443,
    "Ġmistake": 2444,
    "Ġyog": 2445,
    "oc": 2446,
    "oomy": 2447,
    "Ġpointed": 2448,
    "Ġlad": 2449,
    "Ġaf": 2450,
    "Ġstood": 2451,
    "ork": 2452,
    "Ġonto": 2453,
    "Ġwaiting": 2454,
    "Ġjumping": 2455,
    "Ġprince": 2456,
    "Ġcross": 2457,
    "Ġlock": 2458,
    "Ġcheer": 2459,
    "Ġqueen": 2460,
    "ĠWhy": 2461,
    "ĠMary": 2462,
    "Ġwing": 2463,
    "ones": 2464,
    "we": 2465,
    "Ġlarge": 2466,
    "Ġlovely": 2467,
    "ult": 2468,
    "Ġsur": 2469,
    "Ġret": 2470,
    "And": 2471,
    "Ġdeer": 2472,
    "Ġchew": 2473,
    "Ġcouch": 2474,
    "Ġbal": 2475,
    "aughter": 2476,
    "Ġstret": 2477,
    "era": 2478,
    "ĠTheir": 2479,
    "Ġplaces": 2480,
    "ĠMy": 2481,
    "Ġladder": 2482,
    "oof": 2483,
    "Ġreturn": 2484,
    "raid": 2485,
    "Ġants": 2486,
    "Ġdish": 2487,
    "Ġafraid": 2488,
    "Ġcleaned": 2489,
    "Ġtomorrow": 2490,
    "Ġbuilding": 2491,
    "Ġsandwich": 2492,
    "Ġperson": 2493,
    "Sally": 2494,
    "ned": 2495,
    "Ġpretended": 2496,
    "Ġbounce": 2497,
    "Ġwip": 2498,
    "gest": 2499,
    "Ġmatch": 2500,
    "Ġrich": 2501,
    "uce": 2502,
    "Ġpizz": 2503,
    "Ġgather": 2504,
    "Ġsearch": 2505,
    "Ġboring": 2506,
    "oman": 2507,
    "ĠSomet": 2508,
    "Ġteeth": 2509,
    "Ġhum": 2510,
    "Kitty": 2511,
    "My": 2512,
    "aced": 2513,
    "Ġdaughter": 2514,
    "Ġwoman": 2515,
    "Ġscarf": 2516,
    "Ġgoes": 2517,
    "ĠTogether": 2518,
    "Ġlaw": 2519,
    "Ġstra": 2520,
    "Ġswimming": 2521,
    "Ġfurry": 2522,
    "Ġsplashed": 2523,
    "Ġpri": 2524,
    "Ġloves": 2525,
    "Ġtrue": 2526,
    "Ġscreamed": 2527,
    "Ġlazy": 2528,
    "Ġgen": 2529,
    "Ġanswer": 2530,
    "Ġnumber": 2531,
    "Ġeag": 2532,
    "Ġashamed": 2533,
    "Ġpizza": 2534,
    "aw": 2535,
    "Ġappeared": 2536,
    "Ġfear": 2537,
    "Ġnearby": 2538,
    "Ġpowerful": 2539,
    "Ġflag": 2540,
    "ĠSt": 2541,
    "Ġhang": 2542,
    "vous": 2543,
    "Ġclown": 2544,
    "ek": 2545,
    "Ġchase": 2546,
    "Ġmotor": 2547,
    "Ġwand": 2548,
    "ĠTV": 2549,
    "Ġrub": 2550,
    "Ġsuccess": 2551,
    "Ġchocol": 2552,
    "ĠIf": 2553,
    "Ġcreative": 2554,
    "Ġtrust": 2555,
    "Ġwearing": 2556,
    "Ġnoisy": 2557,
    "Ġmatter": 2558,
    "pa": 2559,
    "Ġdig": 2560,
    "Ġhello": 2561,
    "Ġner": 2562,
    "Ġtool": 2563,
    "Ġsaf": 2564,
    "ĠBird": 2565,
    "ado": 2566,
    "Ġnervous": 2567,
    "elp": 2568,
    "Ġtest": 2569,
    "Ġsmiling": 2570,
    "Ġsold": 2571,
    "icked": 2572,
    "oppy": 2573,
    "osaur": 2574,
    "Ġcircle": 2575,
    "mb": 2576,
    "Ġmap": 2577,
    "Ġdrank": 2578,
    "Ġclass": 2579,
    "Ġtries": 2580,
    "Ġchocolate": 2581,
    "ĠPlease": 2582,
    "Ġimpress": 2583,
    "Ġknee": 2584,
    "Ġgener": 2585,
    "Ġdinosaur": 2586,
    "Ġpolite": 2587,
    "Ġmirr": 2588,
    "ĠBobby": 2589,
    "ĠTiny": 2590,
    "Ġballoons": 2591,
    "Ġgold": 2592,
    "Ġrare": 2593,
    "Ġprotect": 2594,
    "Ġcand": 2595,
    "Stop": 2596,
    "Ġcarried": 2597,
    "ĠGo": 2598,
    "ensive": 2599,
    "Ġap": 2600,
    "Ġshadow": 2601,
    "Ġmirror": 2602,
    "ĠDon": 2603,
    "Ġbald": 2604,
    "Ġgun": 2605,
    "ina": 2606,
    "Ġexpensive": 2607,
    "Ġreg": 2608,
    "iff": 2609,
    "Ġmysterious": 2610,
    "ĠSp": 2611,
    "Ġpump": 2612,
    "Ġnote": 2613,
    "Ġhero": 2614,
    "Ġmarch": 2615,
    "Ġhar": 2616,
    "arl": 2617,
    "Ġicy": 2618,
    "Ġrespect": 2619,
    "Ġweird": 2620,
    "Ġsnee": 2621,
    "Ġcri": 2622,
    "Ġgate": 2623,
    "Ġsoap": 2624,
    "rag": 2625,
    "ute": 2626,
    "issors": 2627,
    "Ġthese": 2628,
    "Ġpoor": 2629,
    "Ġtowel": 2630,
    "Ġwhale": 2631,
    "Ġfeet": 2632,
    "Ġtape": 2633,
    "Ġdizzy": 2634,
    "itter": 2635,
    "Ġgenerous": 2636,
    "ndpa": 2637,
    "Ġpres": 2638,
    "ĠBenny": 2639,
    "nic": 2640,
    "Ġdisco": 2641,
    "Help": 2642,
    "ventually": 2643,
    "Ġpicnic": 2644,
    "Ġmic": 2645,
    "Ġlead": 2646,
    "Ġsque": 2647,
    "Ġembarrassed": 2648,
    "Ġjourney": 2649,
    "Ġsugar": 2650,
    "isp": 2651,
    "scape": 2652,
    "Ġboot": 2653,
    "Ġtent": 2654,
    "Ġpeaceful": 2655,
    "Ġfat": 2656,
    "ĠBear": 2657,
    "Ġscissors": 2658,
    "Ġtasted": 2659,
    "Ġyelled": 2660,
    "Tommy": 2661,
    "Ġtick": 2662,
    "Ġmel": 2663,
    "Ġbrush": 2664,
    "Ġdancing": 2665,
    "ness": 2666,
    "Ġglue": 2667,
    "Ġhur": 2668,
    "Ġrough": 2669,
    "Ġclap": 2670,
    "Ġbridge": 2671,
    "ote": 2672,
    "Ġdecor": 2673,
    "Ġcloset": 2674,
    "Ġcrown": 2675,
    "Ġstir": 2676,
    "ual": 2677,
    "imp": 2678,
    "Ġprint": 2679,
    "ĠSometimes": 2680,
    "owed": 2681,
    "airs": 2682,
    "ĠHow": 2683,
    "ume": 2684,
    "Ġcap": 2685,
    "Ġlamp": 2686,
    "Ġvase": 2687,
    "Ġscare": 2688,
    "lebr": 2689,
    "Ġrelie": 2690,
    "lves": 2691,
    "any": 2692,
    "Ġeld": 2693,
    "Ġtele": 2694,
    "Ġcelebr": 2695,
    "Ġgigg": 2696,
    "Ġwhisp": 2697,
    "Ġlog": 2698,
    "Ġsco": 2699,
    "Ġblow": 2700,
    "Ġpainted": 2701,
    "ĠDucky": 2702,
    "Ġpay": 2703,
    "erries": 2704,
    "Ġwis": 2705,
    "Ġberries": 2706,
    "Ġmixed": 2707,
    "Ġspread": 2708,
    "Ġwouldn": 2709,
    "Ġcage": 2710,
    "Ġbake": 2711,
    "rob": 2712,
    "getable": 2713,
    "Ġmountain": 2714,
    "Ġadm": 2715,
    "Ġdrawing": 2716,
    "Ġbecome": 2717,
    "Ġfamous": 2718,
    "Ġknocked": 2719,
    "Ġbean": 2720,
    "Ġnorm": 2721,
    "Ġvegetable": 2722,
    "asp": 2723,
    "Ġkicked": 2724,
    "ustr": 2725,
    "Ġshark": 2726,
    "ser": 2727,
    "Ġincred": 2728,
    "Ġlose": 2729,
    "Ġnormal": 2730,
    "Ġwrap": 2731,
    "ced": 2732,
    "Ġgroup": 2733,
    "Ġthick": 2734,
    "Ġ3": 2735,
    "Ġfine": 2736,
    "Ġglass": 2737,
    "Ġignor": 2738,
    "Ġclock": 2739,
    "Ġteam": 2740,
    "Ġelderly": 2741,
    "Ġclear": 2742,
    "Ġcorner": 2743,
    "Ġfrustr": 2744,
    "Ġmighty": 2745,
    "robe": 2746,
    "Ġcone": 2747,
    "Ġincredible": 2748,
    "ĠBr": 2749,
    "ighed": 2750,
    "Dad": 2751,
    "Ġmoms": 2752,
    "Ġbalance": 2753,
    "Ġsock": 2754,
    "Ġspace": 2755,
    "Ġjam": 2756,
    "ragile": 2757,
    "Ġfright": 2758,
    "Ġorganized": 2759,
    "Ġbranches": 2760,
    "Ġroar": 2761,
    "port": 2762,
    "Ġsword": 2763,
    "alous": 2764,
    "ĠMama": 2765,
    "Ġguess": 2766,
    "Ġfool": 2767,
    "Ġsell": 2768,
    "Ġfeed": 2769,
    "ĠSome": 2770,
    "Ġwhich": 2771,
    "Ġhorn": 2772,
    "Ġpresent": 2773,
    "Ġjealous": 2774,
    "Ġyarn": 2775,
    "ony": 2776,
    "Ġfragile": 2777,
    "Ġburn": 2778,
    "Ġunderstood": 2779,
    "Ġmis": 2780,
    "Ġstubb": 2781,
    "Ġter": 2782,
    "Ġfrustrated": 2783,
    "Where": 2784,
    "ray": 2785,
    "Ġhose": 2786,
    "cient": 2787,
    "Ġspent": 2788,
    "Ġshoe": 2789,
    "Ġtaught": 2790,
    "Ġstubborn": 2791,
    "Ġtwist": 2792,
    "Ġcreature": 2793,
    "Ġchest": 2794,
    "Ġspoiled": 2795,
    "Ġrelieved": 2796,
    "Ġancient": 2797,
    "ique": 2798,
    "Ġwake": 2799,
    "Ġfier": 2800,
    "Ġpray": 2801,
    "Ġfierce": 2802,
    "Ġeggs": 2803,
    "Ġcab": 2804,
    "Ġterri": 2805,
    "Ġbarn": 2806,
    "Ġpumpkin": 2807,
    "Ġcomfortable": 2808,
    "Ġord": 2809,
    "ym": 2810,
    "Ġfrightened": 2811,
    "orry": 2812,
    "Ġtoug": 2813,
    "Ġunique": 2814,
    "Ġmeasure": 2815,
    "Ġgoat": 2816,
    "Ġwagon": 2817,
    "Ġunus": 2818,
    "Ġbreath": 2819,
    "Ġfoolish": 2820,
    "Ġuseful": 2821,
    "Ġexploring": 2822,
    "dle": 2823,
    "Ġstraw": 2824,
    "Ġunusual": 2825,
    "Ġdug": 2826,
    "Ġclay": 2827,
    "Ġdiscover": 2828,
    "Ġtomato": 2829,
    "ĠPe": 2830,
    "Ġdead": 2831,
    "Ġfinding": 2832,
    "Ġpolice": 2833,
    "Ġwrote": 2834,
    "Ġclum": 2835,
    "Ġexam": 2836,
    "lace": 2837,
    "Ġwaves": 2838,
    "Ġsquare": 2839,
    "Ġhears": 2840,
    "Ġcabin": 2841,
    "Ġtells": 2842,
    "Ġnecklace": 2843,
    "Ġdull": 2844,
    "Ġclumsy": 2845,
    "Ġtough": 2846,
    "Ġbubbles": 2847,
    "Ġnosy": 2848,
    "kn": 2849,
    "Ġsearched": 2850,
    "Together": 2851,
    "Ġwashed": 2852,
    "Ġbathroom": 2853,
    "Ġpaws": 2854,
    "bby": 2855,
    "ond": 2856,
    "unn": 2857,
    "anged": 2858,
    "Ġboard": 2859,
    "fic": 2860,
    "known": 2861,
    "Ġasking": 2862,
    "Ġcrazy": 2863,
    "Ġthankful": 2864,
    "Ġsunf": 2865,
    "Ġbitter": 2866,
    "yal": 2867,
    "Ġpir": 2868,
    "berry": 2869,
    "alk": 2870,
    "Ġind": 2871,
    "Ġdiffic": 2872,
    "Ġrose": 2873,
    "cil": 2874,
    "Ġswan": 2875,
    "Ġbloom": 2876,
    "Ġunknown": 2877,
    "ĠElla": 2878,
    "Ġcovered": 2879,
    "Ġdifficult": 2880,
    "Ġadd": 2881,
    "Ġpencil": 2882,
    "Ġfinger": 2883,
    "Ġham": 2884,
    "Ġhoop": 2885,
    "Ġjet": 2886,
    "Ġwitch": 2887,
    "Ġdrop": 2888,
    "Me": 2889,
    "Ġ'": 2890,
    "Ġchicken": 2891,
    "Ġgloomy": 2892,
    "apped": 2893,
    "Ġloyal": 2894,
    "als": 2895,
    "Here": 2896,
    "Ġwealthy": 2897,
    "com": 2898,
    "light": 2899,
    "Ġunl": 2900,
    "Ġcats": 2901,
    "Ġending": 2902,
    "Ġguit": 2903,
    "bled": 2904,
    "shine": 2905,
    "Ġdove": 2906,
    "Ġjoined": 2907,
    "Ġcher": 2908,
    "anut": 2909,
    "Ġmov": 2910,
    "Ġterrible": 2911,
    "Ġyours": 2912,
    "iant": 2913,
    "ĠU": 2914,
    "ĠRex": 2915,
    "Ġsalad": 2916,
    "ĠAndy": 2917,
    "Ġnuts": 2918,
    "Ġrat": 2919,
    "ground": 2920,
    "Ġtiger": 2921,
    "Ġpotato": 2922,
    "Ġmask": 2923,
    "xible": 2924,
    "selves": 2925,
    "Ġvalue": 2926,
    "Ġchanged": 2927,
    "Ġmoving": 2928,
    "Ġexciting": 2929,
    "ormous": 2930,
    "ĠMany": 2931,
    "Ġbody": 2932,
    "ĠTr": 2933,
    "Ġtoast": 2934,
    "Ġrecord": 2935,
    "erp": 2936,
    "Ġzip": 2937,
    "Ġdisg": 2938,
    "Ġcheap": 2939,
    "Ġguitar": 2940,
    "irsty": 2941,
    "Ġknowing": 2942,
    "Ġadventur": 2943,
    "Ġyourself": 2944,
    "Ġenormous": 2945,
    "Ġhairy": 2946,
    "Every": 2947,
    "Ġshoot": 2948,
    "ĠBrown": 2949,
    "Ġbored": 2950,
    "Ġpepper": 2951,
    "Ġremind": 2952,
    "ory": 2953,
    "land": 2954,
    "Ġacorn": 2955,
    "Ġadventurous": 2956,
    "Ġsunshine": 2957,
    "Ġsmaller": 2958,
    "Ġstuff": 2959,
    "Ġhats": 2960,
    "Ġsolve": 2961,
    "ĠJimmy": 2962,
    "Ġflexible": 2963,
    "Ġcost": 2964,
    "rilliant": 2965,
    "Ġknife": 2966,
    "Ġperform": 2967,
    "Ġsnacks": 2968,
    "Ġnods": 2969,
    "Ġshore": 2970,
    "Ġbrilliant": 2971,
    "Ġthirsty": 2972,
    "Ġdelicate": 2973,
    "Ġfrown": 2974,
    "Ġdisgust": 2975,
    "Ġcollect": 2976,
    "Ġstri": 2977,
    "Ġseeds": 2978,
    "Ġcounted": 2979,
    "Ġasleep": 2980,
    "Ġbanana": 2981,
    "reen": 2982,
    "Ġmailbox": 2983,
    "iness": 2984,
    "Ġdough": 2985,
    "Ġtrick": 2986,
    "Ġneighbor": 2987,
    "ungle": 2988,
    "Ġheal": 2989,
    "live": 2990,
    "Who": 2991,
    "Ġstage": 2992,
    "ident": 2993,
    "Ġmarket": 2994,
    "Ġcube": 2995,
    "Ġstat": 2996,
    "Ġjungle": 2997,
    "Ġsquee": 2998,
    "mbre": 2999,
    "Ġexplained": 3000,
    "ates": 3001,
    "Ġumbre": 3002,
    "Ġdisgusting": 3003,
    "Jim": 3004,
    "fted": 3005,
    "Ġlab": 3006,
    "Ġjolly": 3007,
    "Ġflash": 3008,
    "und": 3009,
    "Ġfridge": 3010,
    "inal": 3011,
    "pid": 3012,
    "ilt": 3013,
    "Ġcrane": 3014,
    "corn": 3015,
    "Ġsuit": 3016,
    "Ġrh": 3017,
    "iddle": 3018,
    "Ġsunflower": 3019,
    "Ġtimes": 3020,
    "ĠAl": 3021,
    "erpill": 3022,
    "Ġcaterpill": 3023,
    "Ġrelax": 3024,
    "Ġshiver": 3025,
    "Ġfour": 3026,
    "Ġisland": 3027,
    "iginal": 3028,
    "Ġharm": 3029,
    "ict": 3030,
    "ĠWhile": 3031,
    "ying": 3032,
    "Ġstupid": 3033,
    "Ġmedic": 3034,
    "ĠInstead": 3035,
    "Ġcomb": 3036,
    "Ġgoose": 3037,
    "Ġcro": 3038,
    "edient": 3039,
    "ĠWill": 3040,
    "Ġstove": 3041,
    "If": 3042,
    "Are": 3043,
    "Ġindepend": 3044,
    "Mum": 3045,
    "most": 3046,
    "Ġspring": 3047,
    "Ġgem": 3048,
    "Ġbatter": 3049,
    "Ġsighed": 3050,
    "Ġvegetables": 3051,
    "Ġstones": 3052,
    "pes": 3053,
    "Ġshine": 3054,
    "How": 3055,
    "Ġmedicine": 3056,
    "Ġdepend": 3057,
    "Ġrug": 3058,
    "ĠYour": 3059,
    "Ġcareless": 3060,
    "Ġoriginal": 3061,
    "Ġstamp": 3062,
    "Ġgar": 3063,
    "Ġcries": 3064,
    "Inside": 3065,
    "gu": 3066,
    "Ġcarrots": 3067,
    "Ġscr": 3068,
    "Ġsuccessful": 3069,
    "Ġsauce": 3070,
    "Ġjeep": 3071,
    "Ġpopcorn": 3072,
    "Ġmeal": 3073,
    "Ġobedient": 3074,
    "Ġalmost": 3075,
    "Ġmiddle": 3076,
    "Ġmagn": 3077,
    "Ġstudy": 3078,
    "Ġindependent": 3079,
    "Ġfearful": 3080,
    "Ġjack": 3081,
    "met": 3082,
    "inky": 3083,
    "Sorry": 3084,
    "ĠSammy": 3085,
    "Ġescape": 3086,
    "Ġcaterpillar": 3087,
    "Ġserious": 3088,
    "Ġpeanut": 3089,
    "Ġbedroom": 3090,
    "Ġeager": 3091,
    "aken": 3092,
    "Ġgets": 3093,
    "Ġparrot": 3094,
    "Ġstatue": 3095,
    "Ġhelmet": 3096,
    "Ġpebb": 3097,
    "ĠNo": 3098,
    "Ġfountain": 3099,
    "Ġraven": 3100,
    "Ġang": 3101,
    "Ġpasta": 3102,
    "Ġumbrella": 3103,
    "Ġcompet": 3104,
    "There": 3105,
    "Ġjacket": 3106,
    "Ġbelonged": 3107,
    "Ġdest": 3108,
    "Ġfilthy": 3109,
    "Ġdesign": 3110,
    "Ġborrow": 3111,
    "Ġcam": 3112,
    "erable": 3113,
    "Ġhouses": 3114,
    "Ġprize": 3115,
    "Ġhay": 3116,
    "Ġbrace": 3117,
    "Ġstanding": 3118,
    "Ġmiserable": 3119,
    "Ġraced": 3120,
    "Ġtaken": 3121,
    "ages": 3122,
    "Ġfork": 3123,
    "Ġcrayon": 3124,
    "Ġpainting": 3125,
    "io": 3126,
    "Ġtriang": 3127,
    "Ġimpressive": 3128,
    "Ġchoose": 3129,
    "Ġfig": 3130,
    "Ġtied": 3131,
    "iable": 3132,
    "Ġspotted": 3133,
    "Ġlifted": 3134,
    "Ġslipped": 3135,
    "ours": 3136,
    "Ġtank": 3137,
    "Ġthoughtful": 3138,
    "Ġdependable": 3139,
    "Ġsteal": 3140,
    "Ġgarage": 3141,
    "enny": 3142,
    "Ġbuilt": 3143,
    "Ġmush": 3144,
    "Ġer": 3145,
    "ipe": 3146,
    "Ġmole": 3147,
    "Ġcrawled": 3148,
    "Ġscale": 3149,
    "Ġboats": 3150,
    "Ġpian": 3151,
    "Ġpant": 3152,
    "Ġhammer": 3153,
    "Ġbottom": 3154,
    "lph": 3155,
    "Ġcheerful": 3156,
    "Ġusing": 3157,
    "Ġsmoke": 3158,
    "Ġpicks": 3159,
    "Ġmoder": 3160,
    "berries": 3161,
    "Ġshows": 3162,
    "rn": 3163,
    "Ġpiano": 3164,
    "Ġmagnet": 3165,
    "dile": 3166,
    "codile": 3167,
    "Ġhurts": 3168,
    "inary": 3169,
    "Ġref": 3170,
    "Ġcrack": 3171,
    "Ġeng": 3172,
    "Ġaunt": 3173,
    "Ġmelon": 3174,
    "Ġwaff": 3175,
    "Ġmodern": 3176,
    "Ġdolph": 3177,
    "unnel": 3178,
    "cream": 3179,
    "pack": 3180,
    "Ġtunnel": 3181,
    "oin": 3182,
    "Ġarrow": 3183,
    "Ġreliable": 3184,
    "Ġhopping": 3185,
    "Ġmushroom": 3186,
    "Ġjug": 3187,
    "Timmy": 3188,
    "Ġsquash": 3189,
    "Ġgum": 3190,
    "Ġsink": 3191,
    "Ġmovie": 3192,
    "Ġtax": 3193,
    "Ġflute": 3194,
    "Ġbeet": 3195,
    "Ġlean": 3196,
    "Their": 3197,
    "iv": 3198,
    "Ġpopular": 3199,
    "opter": 3200,
    "icopter": 3201,
    "Ġcryst": 3202,
    "Ġones": 3203,
    "Ġsil": 3204,
    "Ġcompetit": 3205,
    "Ġhelicopter": 3206,
    "aser": 3207,
    "Ġneeds": 3208,
    "ipop": 3209,
    "llipop": 3210,
    "Ġcrocodile": 3211,
    "Ġliz": 3212,
    "Molly": 3213,
    "Ġpress": 3214,
    "Ġtroubled": 3215,
    "Ġpige": 3216,
    "Ġlocked": 3217,
    "Ġtricks": 3218,
    "Ġlollipop": 3219,
    "Ġplayful": 3220,
    "Ġhumble": 3221,
    "Ġtaxi": 3222,
    "Ġkissed": 3223,
    "Ġlow": 3224,
    "appy": 3225,
    "comfortable": 3226,
    "amond": 3227,
    "Ġuncomfortable": 3228,
    "Ġrid": 3229,
    "host": 3230,
    "Ġwander": 3231,
    "atch": 3232,
    "Ġangel": 3233,
    "edy": 3234,
    "cles": 3235,
    "Ġtorn": 3236,
    "Ġgrace": 3237,
    "Ġanx": 3238,
    "Ġwrapped": 3239,
    "Ġmuff": 3240,
    "Ġtwig": 3241,
    "Ġpants": 3242,
    "Ġdisappoin": 3243,
    "ĠSn": 3244,
    "Ġhelps": 3245,
    "Ġdiamond": 3246,
    "Ġcamera": 3247,
    "atter": 3248,
    "oto": 3249,
    "Ġanxious": 3250,
    "Ġghost": 3251,
    "Ġtears": 3252,
    "Ġruined": 3253,
    "cident": 3254,
    "ĠJenny": 3255,
    "ilty": 3256,
    "Ġquar": 3257,
    "aff": 3258,
    "ĠEven": 3259,
    "Ġfis": 3260,
    "opl": 3261,
    "Ġbelt": 3262,
    "eropl": 3263,
    "Ġenv": 3264,
    "Ġguilty": 3265,
    "Ġbull": 3266,
    "Ġaeropl": 3267,
    "Ġhelpless": 3268,
    "Ġhappiness": 3269,
    "Ġlizard": 3270,
    "Ġboys": 3271,
    "cut": 3272,
    "ext": 3273,
    "Ġcere": 3274,
    "Ġwalks": 3275,
    "cean": 3276,
    "Ġpassed": 3277,
    "Ġmeant": 3278,
    "Ġocean": 3279,
    "Ġfluffy": 3280,
    "Ġwire": 3281,
    "Ġnail": 3282,
    "Ġbracelet": 3283,
    "Ġdeaf": 3284,
    "zed": 3285,
    "Ġstretch": 3286,
    "Ġcandle": 3287,
    "Ġcact": 3288,
    "tt": 3289,
    "Ġbeetle": 3290,
    "Ġmop": 3291,
    "Ġharmless": 3292,
    "umpet": 3293,
    "Ġordinary": 3294,
    "Ġanswered": 3295,
    "Ġcollar": 3296,
    "Ġcop": 3297,
    "Ġbees": 3298,
    "Ġtire": 3299,
    "Ġshape": 3300,
    "Ġquarrel": 3301,
    "Ġradio": 3302,
    "Ġflashlight": 3303,
    "Ġcrystal": 3304,
    "Ġharder": 3305,
    "Ġpoured": 3306,
    "Ġtrumpet": 3307,
    "Ġengine": 3308,
    "Mama": 3309,
    "Ġpersist": 3310,
    "Ġhunt": 3311,
    "Ġtooth": 3312,
    "Ġcereal": 3313,
    "Ġinvited": 3314,
    "Ġcomput": 3315,
    "Ġtag": 3316,
    "Ġoffice": 3317,
    "Ġmelt": 3318,
    "Ġspill": 3319,
    "Ġcharm": 3320,
    "coa": 3321,
    "Ġlit": 3322,
    "Ġscoot": 3323,
    "Ġcomet": 3324,
    "Ġtriangle": 3325,
    "ief": 3326,
    "Ġmug": 3327,
    "Ġrep": 3328,
    "ube": 3329,
    "Ġyogurt": 3330,
    "Ġspend": 3331,
    "Ġcompass": 3332,
    "Ġaccident": 3333,
    "Ġshade": 3334,
    "hett": 3335,
    "aghett": 3336,
    "aghetti": 3337,
    "Ġdisappointed": 3338,
    "Ġlicked": 3339,
    "Ġcactus": 3340,
    "Ġpale": 3341,
    "Ġcush": 3342,
    "Ġfigure": 3343,
    "Ġregular": 3344,
    "Ġgiving": 3345,
    "Ġavoc": 3346,
    "Ġpro": 3347,
    "Ġsheet": 3348,
    "Ġwhispered": 3349,
    "aze": 3350,
    "uth": 3351,
    "ellig": 3352,
    "Ġcreate": 3353,
    "Ġbarber": 3354,
    "Ġintellig": 3355,
    "Ġpipe": 3356,
    "Ġrode": 3357,
    "Ġroof": 3358,
    "Jane": 3359,
    "Ġthread": 3360,
    "ither": 3361,
    "Ġvi": 3362,
    "Ġload": 3363,
    "Ġlibr": 3364,
    "Ġgifted": 3365,
    "ccol": 3366,
    "Ġpracticed": 3367,
    "Ġdelight": 3368,
    "ccoli": 3369,
    "Ġharsh": 3370,
    "asses": 3371,
    "Ġpow": 3372,
    "Ġdust": 3373,
    "ĠTrue": 3374,
    "Ġbicy": 3375,
    "azz": 3376,
    "Ġspaghetti": 3377,
    "Ġcompassion": 3378,
    "Ġsailed": 3379,
    "urkey": 3380,
    "ubby": 3381,
    "Ġforward": 3382,
    "Ġpersistent": 3383,
    "Ġspeed": 3384,
    "Ġmitten": 3385,
    "Ġcocoa": 3386,
    "Ġenvel": 3387,
    "Ġquestions": 3388,
    "Ġcomputer": 3389,
    "Ġcoo": 3390,
    "Ġfeathers": 3391,
    "hip": 3392,
    "Ġglove": 3393,
    "ging": 3394,
    "Bobo": 3395,
    "Ġrice": 3396,
    "Ġshrimp": 3397,
    "Ġdesk": 3398,
    "Ġstream": 3399,
    "Ġinse": 3400,
    "Ġpigeon": 3401,
    "Ġcharming": 3402,
    "Ġears": 3403,
    "Ġcarp": 3404,
    "lcan": 3405,
    "Ġraft": 3406,
    "Ġenvious": 3407,
    "Ġknot": 3408,
    "Ġturkey": 3409,
    "Ġstronger": 3410,
    "omes": 3411,
    "Ġcoins": 3412,
    "Ġtap": 3413,
    "lcano": 3414,
    "weet": 3415,
    "Ġtrap": 3416,
    "umbers": 3417,
    "Ġaeroplane": 3418,
    "Ġtrunk": 3419,
    "Ġwheat": 3420,
    "Ġboxes": 3421,
    "Ġchubby": 3422,
    "Ġcarpet": 3423,
    "Ġrestless": 3424,
    "Ġintelligent": 3425,
    "Ġtube": 3426,
    "Ġspun": 3427,
    "Ġdreams": 3428,
    "Ġfriendship": 3429,
    "ulif": 3430,
    "olin": 3431,
    "Ġhalf": 3432,
    "Ġloop": 3433,
    "Ġcrawl": 3434,
    "Ġbroccoli": 3435,
    "Ġonion": 3436,
    "Ġdeliver": 3437,
    "anger": 3438,
    "Ġacce": 3439,
    "Ġvide": 3440,
    "Ġvolcano": 3441,
    "ĠJake": 3442,
    "Ġsle": 3443,
    "Ġtrack": 3444,
    "Ġbri": 3445,
    "Ġcaulif": 3446,
    "Ġvine": 3447,
    "ye": 3448,
    "Ġticket": 3449,
    "Ġthief": 3450,
    "essie": 3451,
    "cycle": 3452,
    "Ġlouder": 3453,
    "Ġinsect": 3454,
    "Ġnumbers": 3455,
    "asing": 3456,
    "Ġyaw": 3457,
    "Ġhaircut": 3458,
    "ital": 3459,
    "Ġsleeping": 3460,
    "Ġmill": 3461,
    "Ġeventually": 3462,
    "Ġalert": 3463,
    "Ġexcite": 3464,
    "Ġpebble": 3465,
    "Ġhosp": 3466,
    "Ġattract": 3467,
    "Ġplanet": 3468,
    "ĠToday": 3469,
    "Ġuniver": 3470,
    "isted": 3471,
    "ulu": 3472,
    "Ġhospital": 3473,
    "Ġeraser": 3474,
    "Ġreturned": 3475,
    "Ġdestro": 3476,
    "Ġgraceful": 3477,
    "Ġhappening": 3478,
    "ache": 3479,
    "ĠOK": 3480,
    "ĠEmily": 3481,
    "Ġdecide": 3482,
    "Ġlearning": 3483,
    "Ġscreen": 3484,
    "rework": 3485,
    "Ġnicely": 3486,
    "Ġleop": 3487,
    "Ġcauliflower": 3488,
    "Ġcompetitive": 3489,
    "Ġpoem": 3490,
    "Ġcelebrate": 3491,
    "Ġcurt": 3492,
    "Ġpeach": 3493,
    "Ġsoldier": 3494,
    "Ġsaus": 3495,
    "Ġparade": 3496,
    "atient": 3497,
    "Ġattractive": 3498,
    "Ġcurtain": 3499,
    "Ġdolphin": 3500,
    "Ġbase": 3501,
    "Ġviolin": 3502,
    "Ġways": 3503,
    "Go": 3504,
    "ats": 3505,
    "Ġtravel": 3506,
    "ten": 3507,
    "Ġrod": 3508,
    "Ġignorant": 3509,
    "ulb": 3510,
    "Ġwheels": 3511,
    "Ġyach": 3512,
    "Ġscatter": 3513,
    "Ġdeter": 3514,
    "Ġcompassionate": 3515,
    "Ġbarrel": 3516,
    "Ġenvelope": 3517,
    "Ġbubble": 3518,
    "Ġlying": 3519,
    "Ġfirework": 3520,
    "Ġsort": 3521,
    "Ġquestion": 3522,
    "zzy": 3523,
    "ĠPipp": 3524,
    "Ġscooter": 3525,
    "Ġdeterm": 3526,
    "Ġrag": 3527,
    "Ġthu": 3528,
    "Ġbicycle": 3529,
    "elery": 3530,
    "Ġneedle": 3531,
    "ĠFr": 3532,
    "Ġjudge": 3533,
    "Ġbulb": 3534,
    "Ġleopard": 3535,
    "Ġtem": 3536,
    "Ġyacht": 3537,
    "Ġpony": 3538,
    "Ġcricket": 3539,
    "Ġorder": 3540,
    "Ġhomes": 3541,
    "Ġador": 3542,
    "tern": 3543,
    "Ġtruth": 3544,
    "Ġhook": 3545,
    "dom": 3546,
    "Ġrubbed": 3547,
    "ete": 3548,
    "igator": 3549,
    "Ġbushes": 3550,
    "Sarah": 3551,
    "Ġuncle": 3552,
    "Ġcushion": 3553,
    "Ġspell": 3554,
    "Ġgrown": 3555,
    "Ġcooked": 3556,
    "Ġadorable": 3557,
    "Ġchalk": 3558,
    "Ġsoar": 3559,
    "Ġpurse": 3560,
    "Ġskin": 3561,
    "Ġthemselves": 3562,
    "Ġimpatient": 3563,
    "Ġcelery": 3564,
    "Ġtray": 3565,
    "Ġshells": 3566,
    "Ġpengu": 3567,
    "Ġsniff": 3568,
    "Ġprun": 3569,
    "Ġwalls": 3570,
    "Ġseal": 3571,
    "Ġlively": 3572,
    "Ġcase": 3573,
    "Ġalligator": 3574,
    "Ġdistant": 3575,
    "Ġradish": 3576,
    "Ġsaying": 3577,
    "Ġspeak": 3578,
    "Ġmotorcycle": 3579,
    "Ġmeat": 3580,
    "Ġsend": 3581,
    "illa": 3582,
    "Ġspinning": 3583,
    "Ġforth": 3584,
    "Ġcounting": 3585,
    "Ġenth": 3586,
    "Ġbounced": 3587,
    "Ġchain": 3588,
    "Ġed": 3589,
    "Ġcleaning": 3590,
    "ebra": 3591,
    "Ġfilm": 3592,
    "Ġslept": 3593,
    "Ġpit": 3594,
    "Ġsurf": 3595,
    "Ġmarry": 3596,
    "usia": 3597,
    "Ġwallet": 3598,
    "Ġenthusia": 3599,
    "Ġmetal": 3600,
    "urb": 3601,
    "ebook": 3602,
    "Ġbin": 3603,
    "Ġweek": 3604,
    "Ġnotebook": 3605,
    "Ġwiped": 3606,
    "Ġskip": 3607,
    "ision": 3608,
    "chair": 3609,
    "Ġbiggest": 3610,
    "Ġimpro": 3611,
    "Ġavocado": 3612,
    "Ġbehave": 3613,
    "Ġdestroy": 3614,
    "vator": 3615,
    "Ġbandage": 3616,
    "Ġlaughs": 3617,
    "Ġsteak": 3618,
    "Ġpattern": 3619,
    "ĠSh": 3620,
    "Ġpost": 3621,
    "Ġelevator": 3622,
    "ĠBuzz": 3623,
    "usie": 3624,
    "Ġdive": 3625,
    "Ġshut": 3626,
    "Ġskipped": 3627,
    "Ġunlock": 3628,
    "Ġdiary": 3629,
    "dest": 3630,
    "ject": 3631,
    "Ġzebra": 3632,
    "Ġbags": 3633,
    "ating": 3634,
    "Ġarmchair": 3635,
    "rage": 3636,
    "aged": 3637,
    "Ġdisturb": 3638,
    "Ġoy": 3639,
    "Ġpole": 3640,
    "Ġshowing": 3641,
    "Ġgathered": 3642,
    "Ġclub": 3643,
    "Ġnurse": 3644,
    "bul": 3645,
    "Ġearth": 3646,
    "Ġenc": 3647,
    "Ġstranger": 3648,
    "Ġsweater": 3649,
    "Ġjellyfish": 3650,
    "Ġscrew": 3651,
    "Ġtemp": 3652,
    "ĠPoppy": 3653,
    "Ġcompl": 3654,
    "Ġmixer": 3655,
    "Give": 3656,
    "Ġskull": 3657,
    "Ġlime": 3658,
    "Ġbump": 3659,
    "bulance": 3660,
    "Ġambulance": 3661,
    "nam": 3662,
    "Ġfather": 3663,
    "Ġjournal": 3664,
    "Gra": 3665,
    "Ġloudly": 3666,
    "ito": 3667,
    "Ġfolder": 3668,
    "Ġshield": 3669,
    "ĠBet": 3670,
    "ĠLulu": 3671,
    "Ġlibrary": 3672,
    "ĠPeter": 3673,
    "Ġbuttons": 3674,
    "Ġplayground": 3675,
    "Ġtrucks": 3676,
    "Ġink": 3677,
    "Ġlights": 3678,
    "Ġtummy": 3679,
    "Ġpointing": 3680,
    "Ġcity": 3681,
    "Ġdecorate": 3682,
    "Ġstation": 3683,
    "irit": 3684,
    "Ġprep": 3685,
    "Ġfalls": 3686,
    "quito": 3687,
    "ĠPolly": 3688,
    "Billy": 3689,
    "Ġfu": 3690,
    "ĠFo": 3691,
    "ention": 3692,
    "nger": 3693,
    "ĠBirdy": 3694,
    "lies": 3695,
    "Ġherb": 3696,
    "nament": 3697,
    "Ġornament": 3698,
    "Ġmodest": 3699,
    "Ġguard": 3700,
    "Ġmos": 3701,
    "Ġknows": 3702,
    "Ġcord": 3703,
    "Ġpolish": 3704,
    "Ġmarble": 3705,
    "oby": 3706,
    "Ġmosquito": 3707,
    "umbled": 3708,
    "Ġsalt": 3709,
    "Ġattic": 3710,
    "Ġwhenever": 3711,
    "Ġvest": 3712,
    "ctop": 3713,
    "Ġresc": 3714,
    "Ġyet": 3715,
    "Ġple": 3716,
    "Ġdisappeared": 3717,
    "ceed": 3718,
    "Ġstrawberry": 3719,
    "Ġonce": 3720,
    "ĠMum": 3721,
    "Ġkay": 3722,
    "Ġbrothers": 3723,
    "Ġitch": 3724,
    "Ġpirate": 3725,
    "Ġfootball": 3726,
    "Ġsplit": 3727,
    "kele": 3728,
    "keleton": 3729,
    "Ġhipp": 3730,
    "Ġaut": 3731,
    "Ġled": 3732,
    "uring": 3733,
    "ctopus": 3734,
    "Ġdriving": 3735,
    "Ġcable": 3736,
    "Ġsupport": 3737,
    "Ġcalling": 3738,
    "Ġcupboard": 3739,
    "aky": 3740,
    "ushed": 3741,
    "Ġwishes": 3742,
    "Ġcomplet": 3743,
    "Ġtripped": 3744,
    "Ġroot": 3745,
    "Ġkayak": 3746,
    "Ġoctopus": 3747,
    "obile": 3748,
    "Ġadded": 3749,
    "Ġedge": 3750,
    "Ġmild": 3751,
    "stic": 3752,
    "Ġdetermined": 3753,
    "Ġsucceed": 3754,
    "?\".": 3755,
    "Ġreading": 3756,
    "omobile": 3757,
    "Ġcoal": 3758,
    "Well": 3759,
    "gl": 3760,
    "utes": 3761,
    "par": 3762,
    "Ġsuggest": 3763,
    "Ġstack": 3764,
    "Ġthunder": 3765,
    "Ġkindness": 3766,
    "Ġautomobile": 3767,
    "Ġcomplain": 3768,
    "Ġenthusiastic": 3769,
    "Ġsneeze": 3770,
    "Ġcartoon": 3771,
    "Ġyoga": 3772,
    "ĠLittle": 3773,
    "Ġgrowl": 3774,
    "htub": 3775,
    "Ġflea": 3776,
    "la": 3777,
    "Ġmeadow": 3778,
    "Ġdrawer": 3779,
    "Ġbathtub": 3780,
    "Ġribb": 3781,
    "ophone": 3782,
    "Ġmeans": 3783,
    "Ġhall": 3784,
    "Ġgolf": 3785,
    "Ġskeleton": 3786,
    "Ġmath": 3787,
    "Ġveil": 3788,
    "Ġhunter": 3789,
    "Ġgor": 3790,
    "Ġflame": 3791,
    "Ġpoke": 3792,
    "Ġvideo": 3793,
    "Ġchess": 3794,
    "Ġtroph": 3795,
    "Ġcups": 3796,
    "Ġglowing": 3797,
    "Ġmatt": 3798,
    "Ġoyster": 3799,
    "work": 3800,
    "Ġpenny": 3801,
    "Ġspear": 3802,
    "Ġitself": 3803,
    "Ġdrawings": 3804,
    "Ġhippo": 3805,
    "Ġrepair": 3806,
    "Ġswitch": 3807,
    "glasses": 3808,
    "Ġsunglasses": 3809,
    "Ġteleph": 3810,
    "Ġcostume": 3811,
    "Ġdess": 3812,
    "Ġzipp": 3813,
    ",âĢĿ": 3814,
    "Ġrepe": 3815,
    "Ġmuffin": 3816,
    "Ġarg": 3817,
    "Ġpastry": 3818,
    "Ġpun": 3819,
    "Ġrolling": 3820,
    "Ġminutes": 3821,
    "Ġpacked": 3822,
    "Ġmakeup": 3823,
    "iron": 3824,
    "ric": 3825,
    "ĠPeople": 3826,
    "Ġwaffle": 3827,
    "case": 3828,
    "Ġhandle": 3829,
    "Ġpear": 3830,
    "Ġmaze": 3831,
    "Ġtelephone": 3832,
    "Ġpine": 3833,
    "ait": 3834,
    "Ġgear": 3835,
    "Ġhedge": 3836,
    "Ġmattress": 3837,
    "Ġpackage": 3838,
    "aving": 3839,
    "ĠMiss": 3840,
    "Ġshocked": 3841,
    "ines": 3842,
    "Ġtrophy": 3843,
    "Ġpowder": 3844,
    "Ġknight": 3845,
    "Ġcob": 3846,
    "Ġmissile": 3847,
    "Ġmanaged": 3848,
    "Ġframe": 3849,
    "Ġencou": 3850,
    "Ġwife": 3851,
    "Ġok": 3852,
    "Ġsepar": 3853,
    "web": 3854,
    "Ġstairs": 3855,
    "Ġrot": 3856,
    "Ġcamp": 3857,
    "urch": 3858,
    "rophone": 3859,
    "Ġmagaz": 3860,
    "Ġstrugg": 3861,
    "Ġcolour": 3862,
    "Ġgrapes": 3863,
    "time": 3864,
    "Ġfile": 3865,
    "head": 3866,
    "ĠTina": 3867,
    "Ġbasketball": 3868,
    "Bye": 3869,
    "old": 3870,
    "per": 3871,
    "Ġcobweb": 3872,
    "Re": 3873,
    "Jimmy": 3874,
    "ĠTweet": 3875,
    "See": 3876,
    "Ġperm": 3877,
    "Ġwool": 3878,
    "ĠDan": 3879,
    "Ġmicrophone": 3880,
    "esday": 3881,
    "Ġeye": 3882,
    "Ġleash": 3883,
    "Ġgasp": 3884,
    "iew": 3885,
    "keep": 3886,
    "Ġweep": 3887,
    "Ġbarking": 3888,
    "ature": 3889,
    "Ġsafely": 3890,
    "Ġtear": 3891,
    "Ġview": 3892,
    "ffe": 3893,
    "Ġslides": 3894,
    "Ġsteps": 3895,
    "istol": 3896,
    "ffee": 3897,
    "Ġbananas": 3898,
    "Ġstaff": 3899,
    "Ġspirit": 3900,
    "Ġtask": 3901,
    "Ġgiggled": 3902,
    "Ġhoc": 3903,
    "Ġhockey": 3904,
    "Ġvend": 3905,
    "Ġthose": 3906,
    "Ġgorilla": 3907,
    "Jill": 3908,
    "Ġcooler": 3909,
    "ĠRose": 3910,
    "was": 3911,
    "cing": 3912,
    "Ġearly": 3913,
    "Ġmarched": 3914,
    "rosc": 3915,
    "Ġmint": 3916,
    "ĠLook": 3917,
    "washer": 3918,
    "Ġflour": 3919,
    "Ġhotel": 3920,
    "hic": 3921,
    "Ġsailor": 3922,
    "Ġdessert": 3923,
    "Ġphoto": 3924,
    "roscope": 3925,
    "Ġvehic": 3926,
    "ilot": 3927,
    "Ġoften": 3928,
    "Ġchurch": 3929,
    "ĠPete": 3930,
    "Ġcooking": 3931,
    "Ġremain": 3932,
    "Ġfive": 3933,
    "Ġsausage": 3934,
    "otter": 3935,
    "Ġten": 3936,
    "Ġtools": 3937,
    "Ġmedal": 3938,
    "Ġeither": 3939,
    "Ġfireman": 3940,
    "chor": 3941,
    "Ġgrandpa": 3942,
    "Ġotter": 3943,
    "Ġbaseball": 3944,
    "Ġpretending": 3945,
    "Ġpistol": 3946,
    "Ġdishwasher": 3947,
    "Ġrever": 3948,
    "Ġorganize": 3949,
    "Ġpee": 3950,
    "Ġvendor": 3951,
    "Ġknock": 3952,
    "Ġsight": 3953,
    "Ġgrill": 3954,
    "Ġtemple": 3955,
    "Ġbattery": 3956,
    "Ġthinking": 3957,
    "Ġopens": 3958,
    "Ġow": 3959,
    "Ġrealised": 3960,
    "Ġiron": 3961,
    "Ġlaser": 3962,
    "Ġsne": 3963,
    "Ġsandbox": 3964,
    "Ġoil": 3965,
    "Ġpatch": 3966,
    "Ġhours": 3967,
    "Ġrise": 3968,
    "Ġwhip": 3969,
    "'d": 3970,
    "ctory": 3971,
    "ĠGive": 3972,
    "Ġanchor": 3973,
    "Ġtrash": 3974,
    "ense": 3975,
    "Ġshort": 3976,
    "ney": 3977,
    "ĠBetty": 3978,
    "Ġrhin": 3979,
    "Ġfactory": 3980,
    "seum": 3981,
    "Ġmay": 3982,
    "Ġward": 3983,
    "ately": 3984,
    "Ġcardboard": 3985,
    "ugged": 3986,
    "Ġlotion": 3987,
    "Al": 3988,
    "Ġmessage": 3989,
    "Ġvalu": 3990,
    "Ġwardrobe": 3991,
    "Ġcell": 3992,
    "Ġmuseum": 3993,
    "apers": 3994,
    "Ġur": 3995,
    "ination": 3996,
    "Ġhanging": 3997,
    "ucet": 3998,
    "ailable": 3999,
    "ĠSunny": 4000,
    "ĠZoom": 4001,
    "Ġhive": 4002,
    "eer": 4003,
    "Ġtowers": 4004,
    "keeper": 4005,
    "Ġblackboard": 4006,
    "Ġmem": 4007,
    "Ġexcitement": 4008,
    "Ġcoffee": 4009,
    "Ġpilot": 4010,
    "ready": 4011,
    "Fluffy": 4012,
    "Ġnapkin": 4013,
    "Ġpenguin": 4014,
    "ron": 4015,
    "Ġcheck": 4016,
    "Ġreward": 4017,
    "loo": 4018,
    "Ġquit": 4019,
    "ĠPippin": 4020,
    "Ġcane": 4021,
    "Ġpicking": 4022,
    "place": 4023,
    "ĠSnow": 4024,
    "azor": 4025,
    "Ġfaucet": 4026,
    "Ġig": 4027,
    "Ġpassport": 4028,
    "ĠRob": 4029,
    "Ġstumbled": 4030,
    "Ġdreamed": 4031,
    "Ġigloo": 4032,
    "ĠBessie": 4033,
    "aroo": 4034,
    "angaroo": 4035,
    "Ġfreez": 4036,
    "Ġjuicy": 4037,
    "Ġallowed": 4038,
    "play": 4039,
    "Ġholds": 4040,
    "Ġalready": 4041,
    "Ġavailable": 4042,
    "Ġsett": 4043,
    "Ġbathe": 4044,
    "Ġtornado": 4045,
    "imney": 4046,
    "Ġfingers": 4047,
    "htray": 4048,
    "Ġhanger": 4049,
    "Ġnewsp": 4050,
    "Ġsize": 4051,
    "Ġlaund": 4052,
    "Ġlend": 4053,
    "Ġchimney": 4054,
    "Ġlaundry": 4055,
    "Ġoak": 4056,
    "Ġfisher": 4057,
    "Ġkangaroo": 4058,
    "Ġmen": 4059,
    "ĠEverywhere": 4060,
    "Ġtelling": 4061,
    "Em": 4062,
    "Ġnovel": 4063,
    "body": 4064,
    "Ġmummy": 4065,
    "Ġpal": 4066,
    "Ġmule": 4067,
    "Ġcherries": 4068,
    "Ġnotice": 4069,
    "Ġpractice": 4070,
    "Ġspilled": 4071,
    "Ġreind": 4072,
    "Ġcomplete": 4073,
    "Ġenjoying": 4074,
    "Ġmicroscope": 4075,
    "arian": 4076,
    "ampoo": 4077,
    "Ġgain": 4078,
    "Ġsub": 4079,
    "Ġfireplace": 4080,
    "Ġimagine": 4081,
    "anda": 4082,
    "Ġdisplay": 4083,
    "ocer": 4084,
    "ĠZip": 4085,
    "Ġfastest": 4086,
    "Ġmagazine": 4087,
    "Ġhurry": 4088,
    "Ġcabinet": 4089,
    "Ġshrink": 4090,
    "Ġashtray": 4091,
    "Wait": 4092,
    "Ġcows": 4093,
    "ĠSpike": 4094,
    "Joe": 4095,
    "gen": 4096,
    "Ġpalace": 4097,
    "Ġimprove": 4098,
    "aches": 4099,
    "Ġrake": 4100,
    "Ġreindeer": 4101,
    "Ġfalling": 4102,
    "oceros": 4103,
    "Ġskirt": 4104,
    "ured": 4105,
    "Ġdiscovered": 4106,
    "Ġstared": 4107,
    "Ġroared": 4108,
    "aid": 4109,
    "Ġsilver": 4110,
    "Ġtub": 4111,
    "Ġtrail": 4112,
    "Is": 4113,
    "Ġminer": 4114,
    "come": 4115,
    "Ġbill": 4116,
    "iction": 4117,
    "Ġfog": 4118,
    "Ġax": 4119,
    "stairs": 4120,
    "ilet": 4121,
    "Ġhut": 4122,
    "Ġhappier": 4123,
    "Ġtaller": 4124,
    "ictionary": 4125,
    "Ġoats": 4126,
    "Ġfisherman": 4127,
    "Ġobject": 4128,
    "Ġpor": 4129,
    "vision": 4130,
    "Ġvaluable": 4131,
    "Ġshampoo": 4132,
    "Ġholes": 4133,
    "Ġoffered": 4134,
    "Ġboots": 4135,
    "Ġrhinoceros": 4136,
    "Ġnames": 4137,
    "Ġtoilet": 4138,
    "Ġclimbing": 4139,
    "Ġblin": 4140,
    "vice": 4141,
    "Ow": 4142,
    "Ġstretched": 4143,
    "iest": 4144,
    "Ġzipper": 4145,
    "Ġlistening": 4146,
    "Ġsym": 4147,
    "Ġbathrobe": 4148,
    "alend": 4149,
    "Ġjewelry": 4150,
    "ĠHere": 4151,
    "Ġjokes": 4152,
    "Ġtelevision": 4153,
    "Ġprov": 4154,
    "Ġcalend": 4155,
    "Ġstops": 4156,
    "Ġaxe": 4157,
    "Ġjumps": 4158,
    "Ġfuel": 4159,
    "cu": 4160,
    "Ġsparkly": 4161,
    "Ġperfume": 4162,
    "ĠSusie": 4163,
    "Ġbury": 4164,
    "bol": 4165,
    "Mummy": 4166,
    "lu": 4167,
    "Ġpressed": 4168,
    "ĠKim": 4169,
    "reek": 4170,
    "Ġrece": 4171,
    "fa": 4172,
    "ĠToby": 4173,
    "Ġneat": 4174,
    "Ġcreek": 4175,
    "Ġpopped": 4176,
    "Ġopera": 4177,
    "Ġcalendar": 4178,
    "Ġsnap": 4179,
    "Ġgasped": 4180,
    "Ġattach": 4181,
    "Ġsymbol": 4182,
    "Ġtuna": 4183,
    "ĠMar": 4184,
    "Ġpapers": 4185,
    "Mr": 4186,
    "Ġunpack": 4187,
    "Ġresist": 4188,
    "Ġdictionary": 4189,
    "Ġsubway": 4190,
    "Ġletters": 4191,
    "Ġfreezer": 4192,
    "Ġchose": 4193,
    "Ġpinch": 4194,
    "zag": 4195,
    "Ġspoke": 4196,
    "Ġanyway": 4197,
    "Ġsuper": 4198,
    "Ġporch": 4199,
    "Ġhelper": 4200,
    "affe": 4201,
    "Ġbikes": 4202,
    "Ġlie": 4203,
    "arry": 4204,
    "iches": 4205,
    "Ġtightly": 4206,
    "Ġcomfort": 4207,
    "Ġshaking": 4208,
    "Ġbookcase": 4209,
    "Ġson": 4210,
    "Ġrazor": 4211,
    "aurant": 4212,
    "Ġsandwiches": 4213,
    "ĠAre": 4214,
    "igzag": 4215,
    "Ġweigh": 4216,
    "Ġagainst": 4217,
    "Ġstickers": 4218,
    "Ġrestaurant": 4219,
    "Ġnewspaper": 4220,
    "Ġblouse": 4221,
    "Ġvehicle": 4222,
    "Ġswinging": 4223,
    "Ġped": 4224,
    "Ġdisag": 4225,
    "Ġnature": 4226,
    "Ġsquirrels": 4227,
    "ival": 4228,
    "Ġbelongs": 4229,
    "Ġswamp": 4230,
    "Ġbutterflies": 4231,
    "Ġgym": 4232,
    "del": 4233,
    "Ġinclu": 4234,
    "Ġgrowing": 4235,
    "Ġbuckle": 4236,
    "omed": 4237,
    "Ġstirred": 4238,
    "Ġmustache": 4239,
    "Ġbillboard": 4240,
    "xy": 4241,
    "Ġbeep": 4242,
    "te": 4243,
    "Ġalarm": 4244,
    "Ġlightning": 4245,
    "Ġlip": 4246,
    "Ġfest": 4247,
    "Ġhung": 4248,
    "utor": 4249,
    "Ġdistance": 4250,
    "ogn": 4251,
    "Ġcards": 4252,
    "Ġobser": 4253,
    "Ġagree": 4254,
    "Little": 4255,
    "Ġext": 4256,
    "Ġtease": 4257,
    "Ġrecogn": 4258,
    "Ġrubber": 4259,
    "ik": 4260,
    "Ġhate": 4261,
    "fast": 4262,
    "ef": 4263,
    "Ouch": 4264,
    "Ġdoesn": 4265,
    "Ġmusician": 4266,
    "Ġadvice": 4267,
    "Ġbeef": 4268,
    "Ġserve": 4269,
    "aspoon": 4270,
    "Ġsweetie": 4271,
    "Ġmodel": 4272,
    "lter": 4273,
    "Ġcrib": 4274,
    "Ġblueberries": 4275,
    "Ġsofa": 4276,
    "Ġcircles": 4277,
    "Ġbreakfast": 4278,
    "Ġtutor": 4279,
    "asis": 4280,
    "Ġbookshe": 4281,
    "Ġgiraffe": 4282,
    "stri": 4283,
    "Ġfestival": 4284,
    "Ġseparate": 4285,
    "Ġshelter": 4286,
    "Ġgas": 4287,
    "Ġairport": 4288,
    "Ġolive": 4289,
    "Ġrail": 4290,
    "Ġbookshelf": 4291,
    "Ġfrogs": 4292,
    "Ġteaspoon": 4293,
    "Ġreverse": 4294,
    "Ġjunk": 4295,
    "Ġriding": 4296,
    "Ġpleased": 4297,
    "Ġdrain": 4298,
    "ĠMrs": 4299,
    "Ġwipe": 4300,
    "Ġoasis": 4301,
    "Ġsoil": 4302,
    "Ġahead": 4303,
    "Ġrescue": 4304,
    "Ġleaving": 4305,
    "ummer": 4306,
    "Ġpainter": 4307,
    "Ġsqueeze": 4308,
    "Ġchance": 4309,
    "Ġpoked": 4310,
    "Ġknob": 4311,
    "ĠTeddy": 4312,
    "Ġpeeked": 4313,
    "Ġlumber": 4314,
    "Ġtrains": 4315,
    "Ġextra": 4316,
    "Ġslipp": 4317,
    "Ġquiz": 4318,
    "Ġrefused": 4319,
    "res": 4320,
    "rmomet": 4321,
    "Ġpage": 4322,
    "Ġrules": 4323,
    "Ġhappens": 4324,
    "Ġsounded": 4325,
    "Ġins": 4326,
    "Ġpoint": 4327,
    "Ġwinter": 4328,
    "Ġdancer": 4329,
    "ĠGrandpa": 4330,
    "Ġbirdc": 4331,
    "Ġdisappear": 4332,
    "rmometer": 4333,
    "ĠDolly": 4334,
    "Ġweather": 4335,
    "Ġwaste": 4336,
    "Ġlic": 4337,
    "Ġbirdcage": 4338,
    "Ġtheater": 4339,
    "Ġreef": 4340,
    "Ġcarrying": 4341,
    "Daisy": 4342,
    "Ġinvite": 4343,
    "iform": 4344,
    "Ġgoal": 4345,
    "Ġostri": 4346,
    "Ġuniform": 4347,
    "Ġswung": 4348,
    "Ġtrade": 4349,
    "Ġcliff": 4350,
    "ience": 4351,
    "Ġlawn": 4352,
    "ola": 4353,
    "Ġleaned": 4354,
    "ĠPandy": 4355,
    "angu": 4356,
    "Ġaccept": 4357,
    "Ġadmire": 4358,
    "Ġfort": 4359,
    "Ġaccidentally": 4360,
    "Ġpastel": 4361,
    "bbles": 4362,
    "Ġstom": 4363,
    "Ġlangu": 4364,
    "Ġtwir": 4365,
    "Ġsuff": 4366,
    "Ġpanda": 4367,
    "riger": 4368,
    "Ġbet": 4369,
    "rigerator": 4370,
    "Ġpeek": 4371,
    "render": 4372,
    "Ġblinked": 4373,
    "Ġstarts": 4374,
    "na": 4375,
    "Ġrefrigerator": 4376,
    "Ġanywhere": 4377,
    "!\".": 4378,
    "Ġimagined": 4379,
    "Ġdreaming": 4380,
    "Ġremove": 4381,
    "night": 4382,
    "Ġshower": 4383,
    "ĠLee": 4384,
    "ĠCo": 4385,
    "Ġclassroom": 4386,
    "Ġceiling": 4387,
    "Ġcaring": 4388,
    "ium": 4389,
    "Ġgrand": 4390,
    "Ġmissing": 4391,
    "aked": 4392,
    "Ġlicense": 4393,
    "Ġstable": 4394,
    "Ġthermometer": 4395,
    "Ġmonkeys": 4396,
    "astic": 4397,
    "Ġwarned": 4398,
    "Ġsummer": 4399,
    "ĠWhere": 4400,
    "Ġabove": 4401,
    "Ġbrick": 4402,
    "ected": 4403,
    "Ġcudd": 4404,
    "Ġproblems": 4405,
    "amber": 4406,
    "Ġchasing": 4407,
    "Ġlabel": 4408,
    "Ġapron": 4409,
    "Ġsent": 4410,
    "urnit": 4411,
    "urniture": 4412,
    "Ġlawy": 4413,
    "Ġlid": 4414,
    "uggage": 4415,
    "med": 4416,
    "Ġrespectful": 4417,
    "Ġfurniture": 4418,
    "Ġfrowned": 4419,
    "Ġzoomed": 4420,
    "Ġpages": 4421,
    "Ġprevent": 4422,
    "Ġbent": 4423,
    "Ġluggage": 4424,
    "Ġmistakes": 4425,
    "Ġsunset": 4426,
    "Ġostrich": 4427,
    "ison": 4428,
    "Ġsuggested": 4429,
    "Ġwindows": 4430,
    "ations": 4431,
    "Ġjail": 4432,
    "low": 4433,
    "Ġwine": 4434,
    "Ġribbon": 4435,
    "Ġolder": 4436,
    "Ġshouts": 4437,
    "Ġgrape": 4438,
    "ĠCl": 4439,
    "Ġwigg": 4440,
    "ucture": 4441,
    "Ġstructure": 4442,
    "Ġspoil": 4443,
    "eor": 4444,
    "Ġfixing": 4445,
    "Ġchamber": 4446,
    "Ġlions": 4447,
    "Ġdelay": 4448,
    "Ġfinds": 4449,
    "Ġhanded": 4450,
    "Ġsearching": 4451,
    "Ġunite": 4452,
    "Did": 4453,
    "Ġfought": 4454,
    "Ġlawyer": 4455,
    "Ġbrightly": 4456,
    "Ġpair": 4457,
    "Ġmeeting": 4458,
    "Ġchoice": 4459,
    "Ġsurprises": 4460,
    "ĠEllie": 4461,
    "Ġart": 4462,
    "ĠUn": 4463,
    "Ch": 4464,
    "Ġfavour": 4465,
    "eterin": 4466,
    "eterinarian": 4467,
    "adium": 4468,
    "Ġstadium": 4469,
    "Ġproudly": 4470,
    "iki": 4471,
    "Ġveterinarian": 4472,
    "vet": 4473,
    "rod": 4474,
    "Ġchairs": 4475,
    "Ġslip": 4476,
    "ĠSpe": 4477,
    "Ġsadly": 4478,
    "ĠBow": 4479,
    "Ġincre": 4480,
    "ĠCarl": 4481,
    "Ġpuddles": 4482,
    "Ġberry": 4483,
    "Ġintrod": 4484,
    "Ġranch": 4485,
    "veal": 4486,
    "ĠBoun": 4487,
    "Ġargue": 4488,
    "ĠV": 4489,
    "Ġadmired": 4490,
    "Ġcur": 4491,
    "Ġfavourite": 4492,
    "Your": 4493,
    "Ġinf": 4494,
    "Ġexcitedly": 4495,
    "Ġrac": 4496,
    "Ġgrabs": 4497,
    "mend": 4498,
    "Ġsteam": 4499,
    "thank": 4500,
    "Ġhuman": 4501,
    "eorge": 4502,
    "sity": 4503,
    "ĠHel": 4504,
    "Ġpushing": 4505,
    "Ġsaving": 4506,
    "ĠRed": 4507,
    "Ġreveal": 4508,
    "ommend": 4509,
    "alley": 4510,
    "Ġyield": 4511,
    "olog": 4512,
    "Ġmall": 4513,
    "Ġreminded": 4514,
    "Ġrecommend": 4515,
    "Ġleak": 4516,
    "Ġsurrender": 4517,
    "Ġharb": 4518,
    "Ġappl": 4519,
    "cuss": 4520,
    "aul": 4521,
    "Ġweap": 4522,
    "Ġregret": 4523,
    "Ġputting": 4524,
    "Ġvalley": 4525,
    "Ġmineral": 4526,
    "Ġevening": 4527,
    "elcome": 4528,
    "Ġmatches": 4529,
    "Ġforgave": 4530,
    "Ġsneezed": 4531,
    "Ġpup": 4532,
    "Ġaw": 4533,
    "Ġrushed": 4534,
    "ecause": 4535,
    "Ġspade": 4536,
    "Ġapolog": 4537,
    "Ġplates": 4538,
    "Ġdiscuss": 4539,
    "Ġprepare": 4540,
    "Ġharbor": 4541,
    "Ġignore": 4542,
    "ĠBig": 4543,
    "Ġcountry": 4544,
    "Ġlanguage": 4545,
    "ĠBuzzy": 4546,
    "Ġpulls": 4547,
    "Ġplastic": 4548,
    "Ġsupply": 4549,
    "Ġfloat": 4550,
    "Ġsniffed": 4551,
    "ĠJazz": 4552,
    "Ġreplace": 4553,
    "Ġmeas": 4554,
    "Ġshovel": 4555,
    "ĠBill": 4556,
    "Ġraise": 4557,
    "ĠNext": 4558,
    "Ġfre": 4559,
    "Ġcared": 4560,
    "Ġsocks": 4561,
    "Ġstrip": 4562,
    "Ġdoors": 4563,
    "Ġmystery": 4564,
    "Ġlives": 4565,
    "Ġrestore": 4566,
    "Ġsticker": 4567,
    "Ġsudden": 4568,
    "ari": 4569,
    "Ġkinds": 4570,
    "Ġslippery": 4571,
    "ero": 4572,
    "ĠOw": 4573,
    "Ġplayer": 4574,
    "Ġpanic": 4575,
    "ricane": 4576,
    "Ġhoping": 4577,
    "iday": 4578,
    "Ġshone": 4579,
    "lex": 4580,
    "hero": 4581,
    "Ġbeg": 4582,
    "ĠMike": 4583,
    "ĠBinky": 4584,
    "Ġsuperhero": 4585,
    "Ġdelighted": 4586,
    "Ġgro": 4587,
    "Yay": 4588,
    "aud": 4589,
    "chan": 4590,
    "Ġchickens": 4591,
    "Ġshoulder": 4592,
    "Ġrained": 4593,
    "Ġcolourful": 4594,
    "Ġbreat": 4595,
    "ĠAlice": 4596,
    "Ġclaw": 4597,
    "ĠBubbles": 4598,
    "Yuck": 4599,
    "Ġsoftly": 4600,
    "rise": 4601,
    "Ġport": 4602,
    "Grandma": 4603,
    "Ġhol": 4604,
    "icer": 4605,
    "Ġholiday": 4606,
    "ĠâĢ": 4607,
    "Ġbarks": 4608,
    "ason": 4609,
    "Ġthrowing": 4610,
    "Ġplanes": 4611,
    "Mary": 4612,
    "Ġbend": 4613,
    "ĠFreddy": 4614,
    "Ġshakes": 4615,
    "Ġinfant": 4616,
    "Ġended": 4617,
    "Ġshivering": 4618,
    "Ġkneel": 4619,
    "Ġsunrise": 4620,
    "Ġpushes": 4621,
    "ĠOlive": 4622,
    "Ġthanks": 4623,
    "Ġfresh": 4624,
    "Ġsuffer": 4625,
    "Ġpoints": 4626,
    "imed": 4627,
    "wards": 4628,
    "ĠPat": 4629,
    "Ġtip": 4630,
    "ĠSpeedy": 4631,
    "Ġfreeze": 4632,
    "Ġkeeping": 4633,
    "ĠWould": 4634,
    "Ġgiggle": 4635,
    "Ġcopper": 4636,
    "Ġsmells": 4637,
    "Ġdear": 4638,
    "Ġenter": 4639,
    "Ġprovide": 4640,
    "cast": 4641,
    "chanic": 4642,
    "Ġdishes": 4643,
    "ĠEnd": 4644,
    "cond": 4645,
    "Ġunh": 4646,
    "Next": 4647,
    "Ġapplaud": 4648,
    "Ġheads": 4649,
    "Ġhurricane": 4650,
    "Ġcherry": 4651,
    "Ġthumb": 4652,
    "Ġmenu": 4653,
    "Ġmeowed": 4654,
    "Ġmass": 4655,
    "Ġsecond": 4656,
    "Ġbrighter": 4657,
    "ince": 4658,
    "Ġsandcast": 4659,
    "Ġmechanic": 4660,
    "Ġwre": 4661,
    "Ġsprayed": 4662,
    "Ġletting": 4663,
    "Ġevent": 4664,
    "Ġweapon": 4665,
    "Ġlaught": 4666,
    "Ġx": 4667,
    "Ġlaughter": 4668,
    "Ġclapping": 4669,
    "Ġfeelings": 4670,
    "Will": 4671,
    "icky": 4672,
    "Ġsplashing": 4673,
    "ement": 4674,
    "ĠOr": 4675,
    "acked": 4676,
    "Ġcastles": 4677,
    "ĠFl": 4678,
    "cer": 4679,
    "Ġscore": 4680,
    "apping": 4681,
    "Ġuniverse": 4682,
    "Ġnavy": 4683,
    "Ġdem": 4684,
    "Ġsticky": 4685,
    "ophie": 4686,
    "Ġrooms": 4687,
    "Ġrow": 4688,
    "Ġflies": 4689,
    "igi": 4690,
    "ĠDave": 4691,
    "Ġunhappy": 4692,
    "Ġgreedy": 4693,
    "Ġdare": 4694,
    "Ġalive": 4695,
    "Ġbreaks": 4696,
    "Ġener": 4697,
    "Ġcourage": 4698,
    "Ġinvit": 4699,
    "Ready": 4700,
    "Ġrepeat": 4701,
    "Ġdemand": 4702,
    "Ġtrusted": 4703,
    "Lisa": 4704,
    "Ġsomewhere": 4705,
    "arlie": 4706,
    "Ġprune": 4707,
    "bles": 4708,
    "Ġwreck": 4709,
    "ĠY": 4710,
    "Ġskill": 4711,
    "Ġexamine": 4712,
    "Ġparts": 4713,
    "year": 4714,
    "Ġeaten": 4715,
    "oe": 4716,
    "All": 4717,
    "erc": 4718,
    "enry": 4719,
    "Ġmention": 4720,
    "Ġraining": 4721,
    "ĠHelp": 4722,
    "Buddy": 4723,
    "Ġthrows": 4724,
    "Ġjogged": 4725,
    "quest": 4726,
    "Ġstarting": 4727,
    "Ġrush": 4728,
    "Ġpoison": 4729,
    "Ġpirates": 4730,
    "heart": 4731,
    "Ġvac": 4732,
    "Ġcontent": 4733,
    "Emma": 4734,
    "ĠKiki": 4735,
    "Ġsigh": 4736,
    "Ġflapped": 4737,
    "Ġdrops": 4738,
    "Ġchirp": 4739,
    "Ġsport": 4740,
    "Qu": 4741,
    "Ġsparkled": 4742,
    "ĠZoomy": 4743,
    "Ġgiven": 4744,
    "Ġstreng": 4745,
    "Ġsteel": 4746,
    "Ann": 4747,
    "Ġbumped": 4748,
    "Ġyawned": 4749,
    "Ġstud": 4750,
    "Ġrequest": 4751,
    "Ġscold": 4752,
    "Ġmyself": 4753,
    "Ġstrength": 4754,
    "Ġshrugged": 4755,
    "Mark": 4756,
    "Ġcoats": 4757,
    "Ġpunish": 4758,
    "Ġequ": 4759,
    "Ġsnugg": 4760,
    "Ġuniversity": 4761,
    "Ġpaid": 4762,
    "ĠJohnny": 4763,
    "Ġpigs": 4764,
    "Ġscratch": 4765,
    "Ġtoe": 4766,
    "Ġexerc": 4767,
    "Ġtracks": 4768,
    "Ġupstairs": 4769,
    "Ġprayed": 4770,
    "Ġcrossed": 4771,
    "Ġsqueezed": 4772,
    "Ġimpressed": 4773,
    "Ġflood": 4774,
    "Ġbouncing": 4775,
    "ĠRu": 4776,
    "Alice": 4777,
    "Ġrabbits": 4778,
    "ges": 4779,
    "Ġbadly": 4780,
    "..": 4781,
    "Ġwarn": 4782,
    "Ġleather": 4783,
    "Ġexpect": 4784,
    "Ġnews": 4785,
    "Ġtide": 4786,
    "ĠTed": 4787,
    "Ġminute": 4788,
    "Ġbears": 4789,
    "Ġclaws": 4790,
    "Ġbuzz": 4791,
    "Ġsweetheart": 4792,
    "ĠSm": 4793,
    "yth": 4794,
    "Ġnation": 4795,
    "Sh": 4796,
    "ythm": 4797,
    "Ġvacation": 4798,
    "Ġhist": 4799,
    "Ġheat": 4800,
    "Ġstrawberries": 4801,
    "Ġobserve": 4802,
    "Ġexplored": 4803,
    "Ġsettle": 4804,
    "Ġsandcastle": 4805,
    "Ġyawn": 4806,
    "Ġhistory": 4807,
    "ĠLilly": 4808,
    "ĠLola": 4809,
    "mare": 4810,
    "ĠMummy": 4811,
    "ĠSque": 4812,
    "ially": 4813,
    "inking": 4814,
    "Ġbelieved": 4815,
    "Ġhorses": 4816,
    "Daddy": 4817,
    "ĠHoppy": 4818,
    "Ġchecked": 4819,
    "ĠMandy": 4820,
    "Ġtour": 4821,
    "Ġnetwork": 4822,
    "Ġcheek": 4823,
    "ĠUnder": 4824,
    "Ġoffer": 4825,
    "Ġeasily": 4826,
    "Ġplaced": 4827,
    "spec": 4828,
    "Ġspots": 4829,
    "Ġsnowball": 4830,
    "ween": 4831,
    "men": 4832,
    "Ġenergy": 4833,
    "ĠBee": 4834,
    "Ġimagination": 4835,
    "Ġblueberry": 4836,
    "otten": 4837,
    "Ġbetween": 4838,
    "specially": 4839,
    "ĠGigi": 4840,
    "izes": 4841,
    "Ġdaisy": 4842,
    "Ġwaving": 4843,
    "reeze": 4844,
    "reat": 4845,
    "Ġvroom": 4846,
    "Ġsoak": 4847,
    "Ġsafari": 4848,
    "Ġrhythm": 4849,
    "Ġmassage": 4850,
    "Ġstomach": 4851,
    "Ġbaking": 4852,
    "quake": 4853,
    "Ġnightmare": 4854,
    "Ġinsisted": 4855,
    "Ġblowing": 4856,
    "Ġentered": 4857,
    "Before": 4858,
    "Ġstair": 4859,
    "Ġpalm": 4860,
    "Ġbeauty": 4861,
    "Ġtwisted": 4862,
    "Ġbother": 4863,
    "Ġwriting": 4864,
    "Ġscoop": 4865,
    "Ġprunes": 4866,
    "Ġbrain": 4867,
    "Ġing": 4868,
    "ipment": 4869,
    "Ġpoppy": 4870,
    "Ġhills": 4871,
    "noon": 4872,
    "Ġafternoon": 4873,
    "Ġequipment": 4874,
    "Ġespecially": 4875,
    "hest": 4876,
    "Ġsir": 4877,
    "Ġpad": 4878,
    "ĠSee": 4879,
    "Ġingred": 4880,
    "Ġcalls": 4881,
    "Ġingredient": 4882,
    "ĠFox": 4883,
    "Ġearthquake": 4884,
    "Ġignored": 4885,
    "ĠSnowy": 4886,
    "Ġburned": 4887,
    "Ġnobody": 4888,
    "mble": 4889,
    "Ġsty": 4890,
    "apa": 4891,
    "Ġsew": 4892,
    "Ġtug": 4893,
    "isty": 4894,
    "xygen": 4895,
    "Ġhearts": 4896,
    "Ġlear": 4897,
    "Ġlearnt": 4898,
    "Ġlemonade": 4899,
    "Ġincrease": 4900,
    "illie": 4901,
    "Jenny": 4902,
    "Ġgaz": 4903,
    "Ġbackpack": 4904,
    "Ġmailman": 4905,
    "Ġwhistled": 4906,
    "Ġpedal": 4907,
    "ĠSk": 4908,
    "Fred": 4909,
    "Ġshopkeeper": 4910,
    "ffic": 4911,
    "Ġpermit": 4912,
    "Ġtremble": 4913,
    "Ġyucky": 4914,
    "anges": 4915,
    "Ġmoves": 4916,
    "Ġintroduce": 4917,
    "Ġlemons": 4918,
    "Ġcrash": 4919,
    "Ġbeans": 4920,
    "Ġfloated": 4921,
    "edn": 4922,
    "ednesday": 4923,
    "ittens": 4924,
    "Welcome": 4925,
    "Ġplanned": 4926,
    "Ġstrike": 4927,
    "Ġtraffic": 4928,
    "Ġinclude": 4929,
    "Ġslap": 4930,
    "Ġracing": 4931,
    "ĠLucky": 4932,
    "resses": 4933,
    "Ġwisdom": 4934,
    "Ġpur": 4935,
    "Ġwags": 4936,
    "ĠFinny": 4937,
    "laimed": 4938,
    "ĠGeorge": 4939,
    "Ġluck": 4940,
    "Ġfollowing": 4941,
    "Ġprice": 4942,
    "ĠĊ": 4943,
    "ecting": 4944,
    "Ġmama": 4945,
    "Ġpitch": 4946,
    "Ġbelow": 4947,
    "ĠElly": 4948,
    "ĠHave": 4949,
    "Le": 4950,
    "Ġweight": 4951,
    "Ġexclaimed": 4952,
    "house": 4953,
    "Ġburied": 4954,
    "Ġfollows": 4955,
    "Ġcomf": 4956,
    "Ġrecognize": 4957,
    "Ġingredients": 4958,
    "Ġfurt": 4959,
    "tain": 4960,
    "Ġcandles": 4961,
    "Mimi": 4962,
    "Ġmarbles": 4963,
    "riage": 4964,
    "unday": 4965,
    "emember": 4966,
    "eration": 4967,
    "ĠAlex": 4968,
    "Ġapart": 4969,
    "ĠWednesday": 4970,
    "Ġgrowled": 4971,
    "uct": 4972,
    "ĠSu": 4973,
    "ores": 4974,
    "Ġconf": 4975,
    "Ġteaching": 4976,
    "Ġhopes": 4977,
    "Ġfolded": 4978,
    "Ġclosely": 4979,
    "ĠFinn": 4980,
    "ĠWho": 4981,
    "Ġheel": 4982,
    "ĠSunday": 4983,
    "Ġencourage": 4984,
    "ĠPaul": 4985,
    "ĠOwl": 4986,
    "Ġzigzag": 4987,
    "Ġpulling": 4988,
    "Ġdigg": 4989,
    "Ġbouncy": 4990,
    "Ġfurther": 4991,
    "Ġchewed": 4992,
    "Ġdigging": 4993,
    "Ġwinning": 4994,
    "Woof": 4995,
    "With": 4996,
    "Ġdresses": 4997,
    "Ġimage": 4998,
    "rec": 4999,
    "cery": 5000,
    "Ġshouting": 5001,
    "Ġgrocery": 5002,
    "Ġtwisty": 5003,
    "Ġpeanuts": 5004,
    "Ġpuzzles": 5005,
    "bbing": 5006,
    "ĠDog": 5007,
    "look": 5008,
    "Ġscrat": 5009,
    "Ġchores": 5010,
    "Ġwhisper": 5011,
    "ĠIs": 5012,
    "Ġspike": 5013,
    "ĠFroggy": 5014,
    "Ġcape": 5015,
    "Ġsnail": 5016,
    "Ġacorns": 5017,
    "Ġworms": 5018,
    "hood": 5019,
    "Ġdeeper": 5020,
    "Ġurge": 5021,
    "ifi": 5022,
    "Ġexper": 5023,
    "ĠWhenever": 5024,
    "ĠTilly": 5025,
    "ĠSqueaky": 5026,
    "ĠGrace": 5027,
    "Ġplanted": 5028,
    "Ġattention": 5029,
    "ecture": 5030,
    "Ġexercise": 5031,
    "ĠDanny": 5032,
    "Ġcub": 5033,
    "Ġoperation": 5034,
    "Ġunderground": 5035,
    "Ġhon": 5036,
    "Ġagre": 5037,
    "Ġquite": 5038,
    "Ġcreatures": 5039,
    "Ġsimp": 5040,
    "Everyone": 5041,
    "Ġstruggle": 5042,
    "oral": 5043,
    "ĠMittens": 5044,
    "ddy": 5045,
    "Ġblood": 5046,
    "Ġlecture": 5047,
    "Ġwashing": 5048,
    "Ġhurting": 5049,
    "Ġvanished": 5050,
    "Ġgifts": 5051,
    "Ġdressed": 5052,
    "Ġinvitation": 5053,
    "Ġsolved": 5054,
    "Ġlicks": 5055,
    "Ġsnuggled": 5056,
    "ĠSharing": 5057,
    "ippy": 5058,
    "Ġble": 5059,
    "Ġmarriage": 5060,
    "Ġquietly": 5061,
    "gie": 5062,
    "Ġwarning": 5063,
    "Ġjazz": 5064,
    "Ġbreathe": 5065,
    "reci": 5066,
    "Ġelephants": 5067,
    "Ġsizes": 5068,
    "Ġdried": 5069,
    "Ġfallen": 5070,
    "Ġlandscape": 5071,
    "ories": 5072,
    "Ġsprink": 5073,
    "Ġneighbour": 5074,
    "Ġmice": 5075,
    "uesday": 5076,
    "Ġappreci": 5077,
    "ĠSophie": 5078,
    "ĠJoey": 5079,
    "ĠâĢĵ": 5080,
    "Ġeagerly": 5081,
    "Ġsailing": 5082,
    "ĠCoco": 5083,
    "Ġpaused": 5084,
    "ips": 5085,
    "Ġcounter": 5086,
    "ĠGood": 5087,
    "ĠBounce": 5088,
    "ĠPenny": 5089,
    "Ġworth": 5090,
    "looking": 5091,
    "ĠRock": 5092,
    "Ġoxygen": 5093,
    "Because": 5094,
    "Ġrelease": 5095,
    "Ġshined": 5096,
    "Not": 5097,
    "pted": 5098,
    "Ġreaches": 5099,
    "Ġbalan": 5100,
    "ĠZara": 5101,
    "isses": 5102,
    "Ġoh": 5103,
    "Ġkisses": 5104,
    "Ġstyle": 5105,
    "Ġbricks": 5106,
    "Ġplays": 5107,
    "Ġglo": 5108,
    "ĠTuesday": 5109,
    "Ġideas": 5110,
    "sed": 5111,
    "Ġinst": 5112,
    "Ġwob": 5113,
    "Ġfireworks": 5114,
    "Bella": 5115,
    "iggly": 5116,
    "ucked": 5117,
    "Ġseeing": 5118,
    "Ġflap": 5119,
    "ops": 5120,
    "Ġaccepted": 5121,
    "right": 5122,
    "ĠPip": 5123,
    "Today": 5124,
    "Ġblink": 5125,
    "mm": 5126,
    "ĠRos": 5127,
    "Ġtremb": 5128,
    "These": 5129,
    "Ġmuddy": 5130,
    "Ġmemory": 5131,
    "Ġmarried": 5132,
    "Ġtomatoes": 5133,
    "Ġexit": 5134,
    "ĠAnnie": 5135,
    "Ġwagging": 5136,
    "Ġfash": 5137,
    "Remy": 5138,
    "ĠCharlie": 5139,
    "Ġwandered": 5140,
    "unately": 5141,
    "ipping": 5142,
    "Ġgloves": 5143,
    "Ġcaptain": 5144,
    "Ġpillows": 5145,
    "Ġreceive": 5146,
    "Ġresp": 5147,
    "ĠPinky": 5148,
    "raged": 5149,
    "Ġduring": 5150,
    "ĠEverything": 5151,
    "etch": 5152,
    "Ġweb": 5153,
    "Ġpetals": 5154,
    "Ġwatered": 5155,
    "ĠEventually": 5156,
    "Ġsi": 5157,
    "ived": 5158,
    "Ġmanage": 5159,
    "Ġpinched": 5160,
    "Ġbrings": 5161,
    "Ġvanish": 5162,
    "Ġcakes": 5163,
    "Ġfashion": 5164,
    "ĠBluey": 5165,
    "Ġprinter": 5166,
    "Ġdestroyed": 5167,
    "Ġtreasures": 5168,
    "nce": 5169,
    "Ġallow": 5170,
    "ups": 5171,
    "Ġhadn": 5172,
    "Ġworse": 5173,
    "ĠFifi": 5174,
    "Surpr": 5175,
    "Ġvel": 5176,
    "Ġhits": 5177,
    "Ġbur": 5178,
    "xu": 5179,
    "Ġvelvet": 5180,
    "Ġappear": 5181,
    "Ġdisagree": 5182,
    "do": 5183,
    "Ġcatching": 5184,
    "Ġscattered": 5185,
    "ĠRo": 5186,
    "Ġmemories": 5187,
    "Ġsorts": 5188,
    "ĠPapa": 5189,
    "Ġhers": 5190,
    "Ġscolded": 5191,
    "Ġsigns": 5192,
    "Ġpears": 5193,
    "Ġoranges": 5194,
    "Ġbones": 5195,
    "Ġrang": 5196,
    "Ġsnapped": 5197,
    "Ġsits": 5198,
    "Ġseats": 5199,
    "uxu": 5200,
    "Ġgazed": 5201,
    "Ġraised": 5202,
    "Bl": 5203,
    "ĠMaria": 5204,
    "Ġzipped": 5205,
    "Ġpies": 5206,
    "Ġprints": 5207,
    "Ġshot": 5208,
    "Ġsliding": 5209,
    "ĠGod": 5210,
    "Ġfro": 5211,
    "Ġeasier": 5212,
    "ssible": 5213,
    "Ġskills": 5214,
    "Ġclimbs": 5215,
    "Ġtwirled": 5216,
    "ccer": 5217,
    "Ġblankets": 5218,
    "Ġforgotten": 5219,
    "Ġbaked": 5220,
    "ester": 5221,
    "Yum": 5222,
    "esterday": 5223,
    "Ġdifference": 5224,
    "orted": 5225,
    "Ġluxu": 5226,
    "Ġgolden": 5227,
    "ising": 5228,
    "Ġkitty": 5229,
    "ĠTw": 5230,
    "Ġcutting": 5231,
    "Ġseason": 5232,
    "aggie": 5233,
    "Ġnowhere": 5234,
    "Ġcrow": 5235,
    "ah": 5236,
    "Ġsoccer": 5237,
    "Ġdared": 5238,
    "Ġbites": 5239,
    "ĠHenry": 5240,
    "ĠHarry": 5241,
    "anny": 5242,
    "Ġlung": 5243,
    "Ġcelebrated": 5244,
    "choo": 5245,
    "chie": 5246,
    "Ġstraight": 5247,
    "Ġunlocked": 5248,
    "sters": 5249,
    "Ġsorting": 5250,
    "Ġcollected": 5251,
    "Ġbleed": 5252,
    "aped": 5253,
    "ding": 5254,
    "Ġwelcomed": 5255,
    "Ġvisited": 5256,
    "Ġspoons": 5257,
    "Ġours": 5258,
    "Ġstitch": 5259,
    "Ġjogging": 5260,
    "Surprise": 5261,
    "medi": 5262,
    "Ġemer": 5263,
    "ĠSpark": 5264,
    "mediately": 5265,
    "Ġisn": 5266,
    "Ġtong": 5267,
    "Ġtrave": 5268,
    "Ġwinner": 5269,
    "umble": 5270,
    "Ġsince": 5271,
    "Ġruin": 5272,
    "Ġprett": 5273,
    "Ok": 5274,
    "Moral": 5275,
    "ĠTony": 5276,
    "Ġattached": 5277,
    "Ġweeping": 5278,
    "Ġmarching": 5279,
    "Ġluxury": 5280,
    "Ġsimple": 5281,
    "ĠEach": 5282,
    "Ġshouldn": 5283,
    "Ġguessed": 5284,
    "Ġzero": 5285,
    "Ġcreated": 5286,
    "Ġstuffed": 5287,
    "Ġpets": 5288,
    "ction": 5289,
    "Ġwaist": 5290,
    "Ġfamil": 5291,
    "Ġurged": 5292,
    "Ġbowed": 5293,
    "Ġselling": 5294,
    "Ġfloating": 5295,
    "rr": 5296,
    "ĠSmith": 5297,
    "Ġbye": 5298,
    "ĠKing": 5299,
    "Ġvict": 5300,
    "Ġkingdom": 5301,
    "Ġolives": 5302,
    "Ġkicking": 5303,
    "ĠWiggly": 5304,
    "Ġpunished": 5305,
    "ĠLiz": 5306,
    "ĠBaby": 5307,
    "sit": 5308,
    "Ġtoes": 5309,
    "Ġgrant": 5310,
    "Ġmuscles": 5311,
    "Ġjewels": 5312,
    "ĠRosie": 5313,
    "Ġbeds": 5314,
    "Ġmelted": 5315,
    "Goodbye": 5316,
    "Ġslice": 5317,
    "Ġgrin": 5318,
    "Ġunderstanding": 5319,
    "Ġcollection": 5320,
    "Ġtore": 5321,
    "Ġmeasured": 5322,
    "aker": 5323,
    "Ġcras": 5324,
    "omeday": 5325,
    "iers": 5326,
    "Ġtrapped": 5327,
    "Ġlined": 5328,
    "'ve": 5329,
    "Ġacted": 5330,
    "fortunately": 5331,
    "Ġencouraged": 5332,
    "va": 5333,
    "ĠSandy": 5334,
    "Ġreceived": 5335,
    "Ġwaffles": 5336,
    "ĠBefore": 5337,
    "ĠWally": 5338,
    "Ġwest": 5339,
    "Ġmeow": 5340,
    "ents": 5341,
    "Ġpatterns": 5342,
    "rin": 5343,
    "ino": 5344,
    "Ġbrus": 5345,
    "eath": 5346,
    "Ġmouths": 5347,
    "kins": 5348,
    "Ġbang": 5349,
    "ring": 5350,
    "ĠKate": 5351,
    "Meow": 5352,
    "Ġpeaches": 5353,
    "Ġbreeze": 5354,
    "aded": 5355,
    "une": 5356,
    "Ġprinted": 5357,
    "Ġsoldiers": 5358,
    "Ġsomeday": 5359,
    "Ġpotatoes": 5360,
    "Ġpupil": 5361,
    "umes": 5362,
    "ĠMillie": 5363,
    "Ġdrinks": 5364,
    "Ġshed": 5365,
    "Ġexperience": 5366,
    "ĠTuna": 5367,
    "Ġpresents": 5368,
    "Ġfiref": 5369,
    "ĠRuby": 5370,
    "Ġsurround": 5371,
    "Ġnone": 5372,
    "osed": 5373,
    "Ġvoices": 5374,
    "eep": 5375,
    "Ġdrinking": 5376,
    "ĠUncle": 5377,
    "ishing": 5378,
    "Ġrelaxed": 5379,
    "Ġvictory": 5380,
    "cus": 5381,
    "Ġpaints": 5382,
    "Ġbreaking": 5383,
    "eve": 5384,
    "Ġhurried": 5385,
    "ission": 5386,
    "Ġtwink": 5387,
    "Ġtongue": 5388,
    "Ġcostumes": 5389,
    "Ġflat": 5390,
    "Ġmentioned": 5391,
    "Ġbegged": 5392,
    "Ġteasing": 5393,
    "Ġwhistling": 5394,
    "Ġfetch": 5395,
    "Ġpermission": 5396,
    "Ġsip": 5397,
    "Ġdisagreed": 5398,
    "Ġpearl": 5399,
    "akes": 5400,
    "Ġstro": 5401,
    "vest": 5402,
    "ĠThese": 5403,
    "Ġesc": 5404,
    "Ġappro": 5405,
    "Ġskipping": 5406,
    "Ġfishing": 5407,
    "ĠMay": 5408,
    "Leo": 5409,
    "Ġhighest": 5410,
    "Ġpra": 5411,
    "Ġwatches": 5412,
    "Ġsorted": 5413,
    "Ġringing": 5414,
    "ship": 5415,
    "Ġtonight": 5416,
    "ĠBo": 5417,
    "Ġopin": 5418,
    "Ġlets": 5419,
    "icing": 5420,
    "ĠQu": 5421,
    "Ġperfectly": 5422,
    "Ġshadows": 5423,
    "Ġimmediately": 5424,
    "Ġherbs": 5425,
    "Ġwarmth": 5426,
    "Ġspit": 5427,
    "Ġremained": 5428,
    "ther": 5429,
    "ĠIts": 5430,
    "walk": 5431,
    "Bobby": 5432,
    "irring": 5433,
    "Jen": 5434,
    "Ġsneak": 5435,
    "Ġsix": 5436,
    "Ġlips": 5437,
    "Ġkneeled": 5438,
    "Blue": 5439,
    "Ġcontest": 5440,
    "ĠChe": 5441,
    "utter": 5442,
    "Ġcartoons": 5443,
    "Ġsidewalk": 5444,
    "Ġcolours": 5445,
    "Ġstamps": 5446,
    "Ġago": 5447,
    "Ha": 5448,
    "ĠToto": 5449,
    "ĠBoo": 5450,
    "ĠFollow": 5451,
    "Ġeast": 5452,
    "Ġheaded": 5453,
    "oved": 5454,
    "\",": 5455,
    "Ġstrang": 5456,
    "Ġladyb": 5457,
    "Ġfed": 5458,
    "Ġsupposed": 5459,
    "Ġroots": 5460,
    "Ġlick": 5461,
    "Ġcrunch": 5462,
    "Ġmixing": 5463,
    "Ġworks": 5464,
    "Ġdecorations": 5465,
    "Ġmelting": 5466,
    "Ġknown": 5467,
    "Ġemergen": 5468,
    "Mandy": 5469,
    "Ġrested": 5470,
    "ĠAb": 5471,
    "Ġlines": 5472,
    "ĠSuzy": 5473,
    "Ġlily": 5474,
    "ĠJul": 5475,
    "Ġinstr": 5476,
    "Ġlaid": 5477,
    "ĠGr": 5478,
    "Ġsucceeded": 5479,
    "Ġcones": 5480,
    "Ġwiggle": 5481,
    "ety": 5482,
    "sing": 5483,
    "Ġshock": 5484,
    "Ġsetting": 5485,
    "ĠSlow": 5486,
    "Ġstudied": 5487,
    "Ġstrangers": 5488,
    "ĠRocky": 5489,
    "Really": 5490,
    "Ġtwigs": 5491,
    "Ġbrid": 5492,
    "Ġtheirs": 5493,
    "ĠDr": 5494,
    "Ġgirls": 5495,
    "boo": 5496,
    "!\",": 5497,
    "Ġscreams": 5498,
    "Ġlands": 5499,
    "Ġordered": 5500,
    "Ġstirring": 5501,
    "Ġmoments": 5502,
    "Ġfields": 5503,
    "Ġalright": 5504,
    "Ġstealing": 5505,
    "ded": 5506,
    "Andy": 5507,
    "Ġrul": 5508,
    "Ġbravely": 5509,
    "avid": 5510,
    "ĠBoth": 5511,
    "Ġmister": 5512,
    "!'": 5513,
    "Ġinvest": 5514,
    "Ġscratched": 5515,
    "Ġplaytime": 5516,
    "Ġripped": 5517,
    "Ġinvestig": 5518,
    "Ġtucked": 5519,
    "Ġresting": 5520,
    "Ġburning": 5521,
    "ishes": 5522,
    "ĠClara": 5523,
    "ĠChicky": 5524,
    "Ġbridges": 5525,
    "Ġofficer": 5526,
    "please": 5527,
    "Sammy": 5528,
    "Bird": 5529,
    "abies": 5530,
    "Ġsettled": 5531,
    "Ġmatched": 5532,
    "Ġachie": 5533,
    "Ġtex": 5534,
    "Ġtexture": 5535,
    "Happy": 5536,
    "Ġwaits": 5537,
    "Ġturning": 5538,
    "ĠSky": 5539,
    "Peter": 5540,
    "ored": 5541,
    "Ġtrembling": 5542,
    "isten": 5543,
    "Ġnails": 5544,
    "atie": 5545,
    "Ġmuffins": 5546,
    "ĠSomeone": 5547,
    "ids": 5548,
    "Ġescaped": 5549,
    "ĠJames": 5550,
    "Ġpiles": 5551,
    "Ġinvestigate": 5552,
    "osity": 5553,
    "Ġbroom": 5554,
    "Ġladybug": 5555,
    "Ġsore": 5556,
    "ĠPepper": 5557,
    "Ġappreciate": 5558,
    "Ġadmir": 5559,
    "Ġthreat": 5560,
    "Ġbabies": 5561,
    "Ġsilence": 5562,
    "Ġsisters": 5563,
    "Ġemergency": 5564,
    "Ġarea": 5565,
    "ides": 5566,
    "Ġdads": 5567,
    "Ġanswers": 5568,
    "Ġpupp": 5569,
    "Ġkeys": 5570,
    "Ġchewing": 5571,
    "Ġslapped": 5572,
    "Ġwiz": 5573,
    "Ġimportance": 5574,
    "Boo": 5575,
    "Ġserved": 5576,
    "ĠHop": 5577,
    "Ġsafety": 5578,
    "izing": 5579,
    "Bu": 5580,
    "Would": 5581,
    "Ġsparkle": 5582,
    "Ġtouching": 5583,
    "ĠLater": 5584,
    "Ġsoared": 5585,
    "igail": 5586,
    "Ġsings": 5587,
    "Ġhen": 5588,
    "allen": 5589,
    "Ella": 5590,
    "bers": 5591,
    "antly": 5592,
    "Momo": 5593,
    "ĠDino": 5594,
    "Ġkeeps": 5595,
    "Ġamazement": 5596,
    "Ġchallen": 5597,
    "Ġtwin": 5598,
    "Ġhesit": 5599,
    "Ġrevealed": 5600,
    "anna": 5601,
    "achel": 5602,
    "Ġitem": 5603,
    "Ġdire": 5604,
    "Ġsoaked": 5605,
    "zing": 5606,
    "Ġwrit": 5607,
    "Ġfoods": 5608,
    "Ġrides": 5609,
    "Ġdinosaurs": 5610,
    "Ġrecorded": 5611,
    "Ġtickle": 5612,
    "Ġinch": 5613,
    "ĠZigzag": 5614,
    "ĠMe": 5615,
    "Ġwizard": 5616,
    "Ġvet": 5617,
    "Ġtrips": 5618,
    "Ġglowed": 5619,
    "ĠAn": 5620,
    "ĠFrog": 5621,
    "Mmm": 5622,
    "Ġhi": 5623,
    "Ġbeamed": 5624,
    "Ġquack": 5625,
    "Ġcurled": 5626,
    "Ġhated": 5627,
    "Ġwink": 5628,
    "Ġshopping": 5629,
    "Ġeats": 5630,
    "Eventually": 5631,
    "ĠBug": 5632,
    "Ġpraised": 5633,
    "Ġwooden": 5634,
    "Ġbringing": 5635,
    "Ġmittens": 5636,
    "Ġstudying": 5637,
    "Ġguy": 5638,
    "Ġbrushes": 5639,
    "Ġspaceship": 5640,
    "Ġgust": 5641,
    "Ġcrawling": 5642,
    "ĠSomething": 5643,
    "Cat": 5644,
    "Ġruler": 5645,
    "Ġflav": 5646,
    "Ġdownstairs": 5647,
    "Ġshooting": 5648,
    "Ġtastes": 5649,
    "Ġnapping": 5650,
    "Ġsprinkles": 5651,
    "Ġmarks": 5652,
    "Ġcuddled": 5653,
    "Ġdot": 5654,
    "hello": 5655,
    "plash": 5656,
    "Ġfut": 5657,
    "ales": 5658,
    "aved": 5659,
    "Ġfuture": 5660,
    "Ġmonsters": 5661,
    "Ġcollecting": 5662,
    "Ġmeasuring": 5663,
    "ĠHappy": 5664,
    "'.": 5665,
    "Ġfamilies": 5666,
    "ĠOut": 5667,
    "ĠFirst": 5668,
    "ĠMo": 5669,
    "Ġthrill": 5670,
    "Ġoat": 5671,
    "irts": 5672,
    "Ġresult": 5673,
    "Jake": 5674,
    "Ġapproached": 5675,
    "ĠRabbit": 5676,
    "Ġcrunchy": 5677,
    "act": 5678,
    "Un": 5679,
    "Ġremem": 5680,
    "Ġbleeding": 5681,
    "Ġremembers": 5682,
    "Ġnicer": 5683,
    "Ġbeat": 5684,
    "Ġsneaky": 5685,
    "Ġdisturbed": 5686,
    "Ġleader": 5687,
    "Ġscaring": 5688,
    "Or": 5689,
    "hind": 5690,
    "Ġpeel": 5691,
    "ĠHope": 5692,
    "Ġfiremen": 5693,
    "Ġneighborhood": 5694,
    "ĠStar": 5695,
    "Ġgrey": 5696,
    "ĠNot": 5697,
    "Ġmotion": 5698,
    "Ġnoon": 5699,
    "Ġpossible": 5700,
    "Emily": 5701,
    "Somet": 5702,
    "Ġapologized": 5703,
    "Ġweighed": 5704,
    "ues": 5705,
    "ĠDid": 5706,
    "Ġtickets": 5707,
    "Cl": 5708,
    "Ġnaps": 5709,
    "Ġloose": 5710,
    "Ġpride": 5711,
    "Ġyouth": 5712,
    "Ġswims": 5713,
    "ped": 5714,
    "Ġstrings": 5715,
    "Ġrecognized": 5716,
    "Ġsiren": 5717,
    "Ġpoking": 5718,
    "fied": 5719,
    "ĠHo": 5720,
    "cious": 5721,
    "ha": 5722,
    "elvet": 5723,
    "Ġtricked": 5724,
    "Ġwonders": 5725,
    "Ġgained": 5726,
    "Ġwanting": 5727,
    "Ġcrashed": 5728,
    "Ġobe": 5729,
    "Ġseesaw": 5730,
    "Ġworker": 5731,
    "unnies": 5732,
    "ls": 5733,
    "oming": 5734,
    "Ġdraws": 5735,
    "Ġscooped": 5736,
    ".'": 5737,
    "Ġzooming": 5738,
    "Ġopinion": 5739,
    "Ġyelling": 5740,
    "Ġprepared": 5741,
    "Ġgrinned": 5742,
    "ĠSlowly": 5743,
    "Ġawe": 5744,
    "Ġpoems": 5745,
    "Ġdoggy": 5746,
    "Ġacting": 5747,
    "ĠBeep": 5748,
    "Ġhappiest": 5749,
    "Ġchef": 5750,
    "Ġsneaked": 5751,
    "Ġrespons": 5752,
    "Ġeff": 5753,
    "ĠAlways": 5754,
    "ĠLizzy": 5755,
    "Ġowned": 5756,
    "Ġbunnies": 5757,
    "Ġanytime": 5758,
    "Ġstruck": 5759,
    "Ġpedals": 5760,
    "oys": 5761,
    "Ġknelt": 5762,
    "ena": 5763,
    "Ollie": 5764,
    "Ġsecrets": 5765,
    "Ġpause": 5766,
    "Ġdecorated": 5767,
    "Ġhorns": 5768,
    "Ġagreement": 5769,
    "ĠSqu": 5770,
    "ided": 5771,
    "Ġfrost": 5772,
    "Ġtallest": 5773,
    "Ġobey": 5774,
    "Remember": 5775,
    "riends": 5776,
    "ogo": 5777,
    "ĠStop": 5778,
    "Have": 5779,
    "Ġdecides": 5780,
    "ĠOnce": 5781,
    "Ġbehaved": 5782,
    "Ġtugged": 5783,
    "Ġsides": 5784,
    "Ġwoof": 5785,
    "Ġslim": 5786,
    "zen": 5787,
    "Ġgoodnight": 5788,
    "Ġkeeper": 5789,
    "Ġsparkling": 5790,
    "Ġchirped": 5791,
    "Ġprecious": 5792,
    "mother": 5793,
    "lier": 5794,
    "ien": 5795,
    "Tr": 5796,
    "Ġrepeated": 5797,
    "Ġclaps": 5798,
    "indy": 5799,
    "affes": 5800,
    "Ġsnowballs": 5801,
    "Ġcontain": 5802,
    "ud": 5803,
    "rs": 5804,
    "ĠRay": 5805,
    "Ġourselves": 5806,
    "allow": 5807,
    "Ġgiraffes": 5808,
    "Ġbalancing": 5809,
    "Ġkindly": 5810,
    "Ġspending": 5811,
    "Ġwrites": 5812,
    "ays": 5813,
    "ppers": 5814,
    "ĠLike": 5815,
    "omas": 5816,
    "Ġprop": 5817,
    "Ġhissed": 5818,
    "First": 5819,
    "Ġfrozen": 5820,
    "Ġfrosting": 5821,
    "Ġeffort": 5822,
    "Ġbuzzing": 5823,
    "Ġstruggled": 5824,
    "oh": 5825,
    "ĠSteve": 5826,
    "Ġadmiring": 5827,
    "Ġrele": 5828,
    "iggy": 5829,
    "Ġsweeties": 5830,
    "ĠVelvet": 5831,
    "Ġslimy": 5832,
    "Ġbrushed": 5833,
    "Ġbloomed": 5834,
    "Susie": 5835,
    "ĠAm": 5836,
    "Ġpolished": 5837,
    "ĠZoe": 5838,
    "arth": 5839,
    "anted": 5840,
    "Ġcomfy": 5841,
    "Ġboo": 5842,
    "Ġstaying": 5843,
    "Ġrubbing": 5844,
    "Ducky": 5845,
    "Ġrocking": 5846,
    "Ġpockets": 5847,
    "Ġthrilled": 5848,
    "Ġbeside": 5849,
    "Ġcomple": 5850,
    "ĠAunt": 5851,
    "ĠMaggie": 5852,
    "Ah": 5853,
    "Ġeight": 5854,
    "urry": 5855,
    "isdom": 5856,
    "Ġmachines": 5857,
    "Ġearlier": 5858,
    "Ġyesterday": 5859,
    "Ġseems": 5860,
    "Ġrust": 5861,
    "ĠKeep": 5862,
    "Sp": 5863,
    "Ġtraveled": 5864,
    "Ġfolding": 5865,
    "Ġboom": 5866,
    "Ġcracked": 5867,
    "ities": 5868,
    "Ġhugging": 5869,
    "Ġradishes": 5870,
    "ĠStitch": 5871,
    "Ġopening": 5872,
    "Ġloving": 5873,
    "Ġcircus": 5874,
    "Ġsurrounded": 5875,
    "Ġcuriosity": 5876,
    "ĠRachel": 5877,
    "Ġspraying": 5878,
    "Ġdemanded": 5879,
    "Ġpaintings": 5880,
    "amie": 5881,
    "ĠGreen": 5882,
    "Ġremoved": 5883,
    "Ġgaze": 5884,
    "Ġhonk": 5885,
    "Ġpebbles": 5886,
    "Ġzookeeper": 5887,
    "Ġhardly": 5888,
    "Ġcatches": 5889,
    "edding": 5890,
    "Ġsting": 5891,
    "Ġstripes": 5892,
    "Ġpowers": 5893,
    "Ġloaded": 5894,
    "ĠPippa": 5895,
    "Sometimes": 5896,
    "Ġsplashes": 5897,
    "Ġpots": 5898,
    "Ġpetted": 5899,
    "Ġmatching": 5900,
    "ĠDavid": 5901,
    "Thanks": 5902,
    "Ġtoss": 5903,
    "Ġstare": 5904,
    "Ġbelly": 5905,
    "Yummy": 5906,
    "ibb": 5907,
    "Ġwhatever": 5908,
    "Ġapologize": 5909,
    "Ġrocked": 5910,
    "Ġcomforted": 5911,
    "ĠBree": 5912,
    "Ġdecision": 5913,
    "Ġribbons": 5914,
    "ĠJoy": 5915,
    "ĠBirdie": 5916,
    "ern": 5917,
    "Ġstruggling": 5918,
    "Ġexpected": 5919,
    "Ġdeser": 5920,
    "Ġsteep": 5921,
    "wh": 5922,
    "Ġprotected": 5923,
    "Ġneighbors": 5924,
    "Ġsmiley": 5925,
    "Ġchases": 5926,
    "During": 5927,
    "Ġgranted": 5928,
    "Ġcrumb": 5929,
    "ĠMat": 5930,
    "Ġpurred": 5931,
    "Ġdiving": 5932,
    "Ġsadness": 5933,
    "Whiskers": 5934,
    "Ġorganizing": 5935,
    "lowers": 5936,
    "Ġeagle": 5937,
    "Ġheroes": 5938,
    "Ġdipped": 5939,
    "Ġsunlight": 5940,
    "Ġlied": 5941,
    "Ġpastels": 5942,
    "ĠFrank": 5943,
    "Ex": 5944,
    "Ġsafer": 5945,
    "Ġroads": 5946,
    "Ġscru": 5947,
    "Ġargued": 5948,
    "ĠMilly": 5949,
    "Ġgoals": 5950,
    "ĠWater": 5951,
    "Ġdiscovery": 5952,
    "ĠAbigail": 5953,
    "Ġvillag": 5954,
    "Ġpeered": 5955,
    "Ro": 5956,
    "ĠBouncy": 5957,
    "use": 5958,
    "ana": 5959,
    "loe": 5960,
    "Ġtim": 5961,
    "Ġdragons": 5962,
    "Ġbuildings": 5963,
    "Ġbuckets": 5964,
    "Ġparties": 5965,
    "Ġbeard": 5966,
    "Ġwedding": 5967,
    "Rex": 5968,
    "Ġflutter": 5969,
    "Ġplanets": 5970,
    "Ġann": 5971,
    "ĠRobby": 5972,
    "Ġpolishing": 5973,
    "Ġfasc": 5974,
    "ira": 5975,
    "Ġreleased": 5976,
    "ĠChr": 5977,
    "Ġcrabs": 5978,
    "ĠGogo": 5979,
    "Ġtails": 5980,
    "ĠWatch": 5981,
    "Ġsausages": 5982,
    "ĠJu": 5983,
    "Ġargu": 5984,
    "Ġcontro": 5985,
    "Ġbottles": 5986,
    "Ġwiggled": 5987,
    "Ġteased": 5988,
    "uke": 5989,
    "Ġarguing": 5990,
    "Ġsled": 5991,
    "Ġdragged": 5992,
    "Ġpadd": 5993,
    "ĠCar": 5994,
    "Ġroaring": 5995,
    "Ġclearing": 5996,
    "Ġshirts": 5997,
    "Ġmovies": 5998,
    "Ġgathering": 5999,
    "Ġairpl": 6000,
    "Ġwid": 6001,
    "joyed": 6002,
    "Ġteaches": 6003,
    "Ġspiders": 6004,
    "Ġlimes": 6005,
    "ĠRemember": 6006,
    "ĠDare": 6007,
    "Ġoverjoyed": 6008,
    "Ġactually": 6009,
    "Ġsighs": 6010,
    "Ġcontinue": 6011,
    "Ġcuddle": 6012,
    "Ġsoaring": 6013,
    "Ġsmallest": 6014,
    "ĠJess": 6015,
    "Ġdrives": 6016,
    "Ġsparkles": 6017,
    "Ġrip": 6018,
    "Ġsitu": 6019,
    "Ġcubes": 6020,
    "Ġrefres": 6021,
    "Ġtalent": 6022,
    "Ġchallenge": 6023,
    "ĠOlly": 6024,
    "Ġgrandmother": 6025,
    "ĠSplash": 6026,
    "Ġpouring": 6027,
    "umm": 6028,
    "Ġpretends": 6029,
    "Ġfascin": 6030,
    "Ġcuts": 6031,
    "Ġquarreling": 6032,
    "Ġpeppers": 6033,
    "Ġbank": 6034,
    "Ġshivered": 6035,
    "Ġmane": 6036,
    "Ġdusty": 6037,
    "ley": 6038,
    "Ġwondering": 6039,
    "Ġvillagers": 6040,
    "Ġstretching": 6041,
    "njoy": 6042,
    "ib": 6043,
    "Ġweeks": 6044,
    "Ġwherever": 6045,
    "Ġdarker": 6046,
    "jam": 6047,
    "Tiny": 6048,
    "sses": 6049,
    "ĠX": 6050,
    "Ġrings": 6051,
    "Ġonwards": 6052,
    "ĠKatie": 6053,
    "Ġunited": 6054,
    "Achoo": 6055,
    "Ġbead": 6056,
    "ĠEveryday": 6057,
    "ĠBeing": 6058,
    "Ġprettiest": 6059,
    "Johnny": 6060,
    "Ġcaut": 6061,
    "Ġrealize": 6062,
    "Ġcompany": 6063,
    "Ġpenguins": 6064,
    "annah": 6065,
    "Luna": 6066,
    "Fr": 6067,
    "ĠSpring": 6068,
    "Ġbedtime": 6069,
    "Ġcompleted": 6070,
    "ĠWisdom": 6071,
    "ĠLeave": 6072,
    "âĢĿ.": 6073,
    "Ġknights": 6074,
    "Ġflags": 6075,
    "ĠJe": 6076,
    "ĠBecause": 6077,
    "Ġplayroom": 6078,
    "ĠPrin": 6079,
    "Ġactions": 6080,
    "ĠZero": 6081,
    "Ġlearns": 6082,
    "Ġgotten": 6083,
    "Ġpatience": 6084,
    "inda": 6085,
    "dam": 6086,
    "Ġshrug": 6087,
    "Ġkites": 6088,
    "Ġresponsible": 6089,
    "Ġfears": 6090,
    "Ġdestination": 6091,
    "Ġwires": 6092,
    "Ġreply": 6093,
    "Ġwrist": 6094,
    "Ġdam": 6095,
    "aws": 6096,
    "Ġpacking": 6097,
    "Ġmountains": 6098,
    "Ġfault": 6099,
    "Ġapplauded": 6100,
    "Ġscrubbed": 6101,
    "Ġma": 6102,
    "Ġcrept": 6103,
    "ĠAva": 6104,
    "Uh": 6105,
    "ĠEarth": 6106,
    "Ġsatis": 6107,
    "Ġthird": 6108,
    "Ġphot": 6109,
    "Ġpencils": 6110,
    "Ġwins": 6111,
    "Ġsticking": 6112,
    "Ġbaker": 6113,
    "Ġvisiting": 6114,
    "Ġwound": 6115,
    "Ġuses": 6116,
    "Ġpeas": 6117,
    "Ġreminder": 6118,
    "Ġcontrol": 6119,
    "ashed": 6120,
    "Grandpa": 6121,
    "Ġjoking": 6122,
    "Ġawake": 6123,
    "Ġinstruct": 6124,
    "Ġstaring": 6125,
    "Ġhealed": 6126,
    "ĠPut": 6127,
    "Ġhitting": 6128,
    "ĠFish": 6129,
    "Ġscreaming": 6130,
    "Ġbegin": 6131,
    "Rob": 6132,
    "uckily": 6133,
    "ĠFriends": 6134,
    "ĠMoo": 6135,
    "icorn": 6136,
    "Ġhelmets": 6137,
    "enty": 6138,
    "Ġunicorn": 6139,
    "ler": 6140,
    "seek": 6141,
    "Ġtowels": 6142,
    "Silly": 6143,
    "ĠLou": 6144,
    "Ġchips": 6145,
    "ica": 6146,
    "Ġcreation": 6147,
    "Ġwasted": 6148,
    "bie": 6149,
    "Mar": 6150,
    "ĠBehind": 6151,
    "laire": 6152,
    "Ġmasks": 6153,
    "Ġitems": 6154,
    "Ġforgi": 6155,
    "Ġfirefight": 6156,
    "Ġoutdo": 6157,
    "Ġlollipops": 6158,
    "Watch": 6159,
    "Ġheav": 6160,
    "Ġguns": 6161,
    "Ġdied": 6162,
    "ĠHippy": 6163,
    "Ġseas": 6164,
    "Ġglitter": 6165,
    "uddles": 6166,
    "Ġarrive": 6167,
    "Ġweren": 6168,
    "Ġstole": 6169,
    "Ġscales": 6170,
    "Ġperched": 6171,
    "Ġaccom": 6172,
    "Ġlogs": 6173,
    "Ġachieve": 6174,
    "die": 6175,
    "Ġpracticing": 6176,
    "ining": 6177,
    "Ġwhose": 6178,
    "Stay": 6179,
    "Ġpumpkins": 6180,
    "Ġinstructions": 6181,
    "Ġswoop": 6182,
    "Ġbatteries": 6183,
    "Ġcandies": 6184,
    "Ġagrees": 6185,
    "Ġproject": 6186,
    "Ġsnakes": 6187,
    "Ġchirping": 6188,
    "Benny": 6189,
    "Ġshelves": 6190,
    "Ġprotecting": 6191,
    "Ġparked": 6192,
    "Ġexact": 6193,
    "ĠCra": 6194,
    "Ġpatiently": 6195,
    "Ġactiv": 6196,
    "Ġvideos": 6197,
    "Ġshoulders": 6198,
    "Ġblows": 6199,
    "hee": 6200,
    "Fo": 6201,
    "Ġpromises": 6202,
    "go": 6203,
    "Ġdent": 6204,
    "usan": 6205,
    "uest": 6206,
    "ners": 6207,
    "jamas": 6208,
    "Ġexamined": 6209,
    "Ġairplane": 6210,
    "Doggy": 6211,
    "Ġroses": 6212,
    "Ġaccompl": 6213,
    "Ġtasks": 6214,
    "Dave": 6215,
    "ĠHoot": 6216,
    "Poppy": 6217,
    "ĠBop": 6218,
    "Bunny": 6219,
    "Ġbeads": 6220,
    "Ġbowls": 6221,
    "Ġcrumbs": 6222,
    "zes": 6223,
    "Ġlistens": 6224,
    "ĠLove": 6225,
    "ĠCatty": 6226,
    "ĠBrownie": 6227,
    "Pete": 6228,
    "ĠOl": 6229,
    "Ġdolphins": 6230,
    "Ġcough": 6231,
    "Ġbunch": 6232,
    "Ġguest": 6233,
    "cakes": 6234,
    "Ġrequested": 6235,
    "Ġremote": 6236,
    "Ġimproved": 6237,
    "anta": 6238,
    "Ġreaching": 6239,
    "Ġbrand": 6240,
    "ĠJan": 6241,
    "ayla": 6242,
    "Ġalien": 6243,
    "ĠBye": 6244,
    "irm": 6245,
    "Ġcopy": 6246,
    "ĠSun": 6247,
    "Ġcheering": 6248,
    "Ġphotos": 6249,
    "ĠJulie": 6250,
    "ĠChew": 6251,
    "Bad": 6252,
    "ĠBlink": 6253,
    "Time": 6254,
    "Ġcans": 6255,
    "ĠCuddles": 6256,
    "Ġtimer": 6257,
    "ĠBy": 6258,
    "Ġreplaced": 6259,
    "athy": 6260,
    "Ġworkers": 6261,
    "Ġstern": 6262,
    "ĠEnjoy": 6263,
    "aster": 6264,
    "Ġneither": 6265,
    "Mike": 6266,
    "Ġpassing": 6267,
    "Ġmisses": 6268,
    "Ġcurtains": 6269,
    "Ġconfl": 6270,
    "Chirpy": 6271,
    "Ġrainbows": 6272,
    "Ġrubs": 6273,
    "George": 6274,
    "uctantly": 6275,
    "Ġrolls": 6276,
    "Ġpatted": 6277,
    "ilo": 6278,
    "Ġpajamas": 6279,
    "Ġoutdoors": 6280,
    "esome": 6281,
    "dies": 6282,
    "Ġcomplaining": 6283,
    "ĠSquirrel": 6284,
    "Lola": 6285,
    "Run": 6286,
    "Ġpuppet": 6287,
    "ĠPrincess": 6288,
    "Ġcloses": 6289,
    "Ġbeneath": 6290,
    "Ġlap": 6291,
    "Ġdrums": 6292,
    "Ġtune": 6293,
    "ĠBeth": 6294,
    "ĠMouse": 6295,
    "Ġfilling": 6296,
    "Miss": 6297,
    "angled": 6298,
    "Ġrefuse": 6299,
    "ĠSorry": 6300,
    "Ġsweat": 6301,
    "Ġfaced": 6302,
    "...": 6303,
    "Ġseven": 6304,
    "Ġbalanced": 6305,
    "Ġrescued": 6306,
    "neath": 6307,
    "bl": 6308,
    "Ġquacked": 6309,
    "ĠAbby": 6310,
    "Paul": 6311,
    "istle": 6312,
    "Ġawesome": 6313,
    "Ġ1": 6314,
    "Ġmission": 6315,
    "ĠHowever": 6316,
    "Ġguys": 6317,
    "Ġconflict": 6318,
    "Ġcautious": 6319,
    "Ġvent": 6320,
    "Ġobserved": 6321,
    "Ġcause": 6322,
    "Ġintroduc": 6323,
    "ĠThomas": 6324,
    "Ġpastries": 6325,
    "nie": 6326,
    "ĠĠ": 6327,
    "ĠOur": 6328,
    "Ġexactly": 6329,
    "Ġdoctors": 6330,
    "Ġrule": 6331,
    "Ġbecoming": 6332,
    "Ġpoliceman": 6333,
    "Ġmes": 6334,
    "uly": 6335,
    "Ġrockets": 6336,
    "you": 6337,
    "ĠYes": 6338,
    "ĠDot": 6339,
    "Ġfairies": 6340,
    "lay": 6341,
    "Ġpout": 6342,
    "An": 6343,
    "Ġinsist": 6344,
    "Ġblooming": 6345,
    "Ġtractor": 6346,
    "Ġfarther": 6347,
    "ĠSad": 6348,
    "avi": 6349,
    "Oops": 6350,
    "Great": 6351,
    "Ġremembering": 6352,
    "Ġincluded": 6353,
    "Ġcurly": 6354,
    "Zoom": 6355,
    "Fine": 6356,
    "Ġteamwork": 6357,
    "zie": 6358,
    "Ġfascinated": 6359,
    "Ġwobbled": 6360,
    "Ġslam": 6361,
    "Ġtruly": 6362,
    "Ġhelpers": 6363,
    "Ġsights": 6364,
    "Ġpaddle": 6365,
    "Ġstumble": 6366,
    "Ġfirm": 6367,
    "Henry": 6368,
    "ĠJilly": 6369,
    "acob": 6370,
    "Ġcaused": 6371,
    "Ġprayer": 6372,
    "Ġspong": 6373,
    "Ġrecording": 6374,
    "kelly": 6375,
    "ais": 6376,
    "Ġtraded": 6377,
    "Ġstarfish": 6378,
    "Ġsupplies": 6379,
    "Ġthro": 6380,
    "Ġpointy": 6381,
    "Ġsituation": 6382,
    "Ġinviting": 6383,
    "eah": 6384,
    "gers": 6385,
    "Ġneighbourhood": 6386,
    "Ġeveryday": 6387,
    "Ġornaments": 6388,
    "ĠAlly": 6389,
    "inkle": 6390,
    "Ġvalued": 6391,
    "Ġadding": 6392,
    "Some": 6393,
    "Ġreluctantly": 6394,
    "Ġdots": 6395,
    "Ġstays": 6396,
    "Ġtables": 6397,
    "Ġprettier": 6398,
    "Ġbare": 6399,
    "Ġdesert": 6400,
    "Ġsnowmen": 6401,
    "Ġsteady": 6402,
    "Ġminerals": 6403,
    "araway": 6404,
    "Ġthorn": 6405,
    "ody": 6406,
    "Ġast": 6407,
    "Ġglasses": 6408,
    "Ġfaraway": 6409,
    "ĠGet": 6410,
    "ĠFoxy": 6411,
    "Ġswooped": 6412,
    "ĠWelcome": 6413,
    "ĠTwo": 6414,
    "ĠSure": 6415,
    "Ġunf": 6416,
    "Ġforks": 6417,
    "Ġusually": 6418,
    "Ġusual": 6419,
    "Polly": 6420,
    "Ġdar": 6421,
    "ĠJamie": 6422,
    "Ġwinked": 6423,
    "Ġsneezing": 6424,
    "Ġsolut": 6425,
    "Ġloading": 6426,
    "Ġsponge": 6427,
    "ĠQuick": 6428,
    "Ġinsects": 6429,
    "Ġpans": 6430,
    "Dog": 6431,
    "Ġsobbed": 6432,
    "ĠSanta": 6433,
    "James": 6434,
    "Ġgrowling": 6435,
    "sm": 6436,
    "arter": 6437,
    "Ġthroat": 6438,
    "ĠChloe": 6439,
    "Ġnoses": 6440,
    "ĠJosh": 6441,
    "ĠDizzy": 6442,
    "Ġscarves": 6443,
    "Ġconfident": 6444,
    "Ġyourselves": 6445,
    "ĠWant": 6446,
    "agull": 6447,
    "Ġhomework": 6448,
    "Ġsuperheroes": 6449,
    "ĠStay": 6450,
    "Joey": 6451,
    "Ġsmarter": 6452,
    "Ġwindy": 6453,
    "Ġlibrarian": 6454,
    "Tina": 6455,
    "ĠKids": 6456,
    "Ġgems": 6457,
    "Days": 6458,
    "ora": 6459,
    "Ġunderneath": 6460,
    "Ġkicks": 6461,
    "Ġknowled": 6462,
    "Ġitchy": 6463,
    "Ġknowledge": 6464,
    "Ġjackets": 6465,
    "ĠSkelly": 6466,
    "ĠFor": 6467,
    "Ġsurface": 6468,
    "Ġuntie": 6469,
    "Ġcomm": 6470,
    "ĠDuck": 6471,
    "Ġprincesses": 6472,
    "...\"": 6473,
    "Those": 6474,
    "ido": 6475,
    "eed": 6476,
    "Hold": 6477,
    "Yeah": 6478,
    "coon": 6479,
    "Ġsquares": 6480,
    "ĠHenny": 6481,
    "Ġwarnings": 6482,
    "Ġgiggling": 6483,
    "iar": 6484,
    "Ġreads": 6485,
    "vin": 6486,
    "Our": 6487,
    "Ġchoo": 6488,
    "son": 6489,
    "Ġyounger": 6490,
    "Ġclowns": 6491,
    "ĠMix": 6492,
    "Toby": 6493,
    "Ġropes": 6494,
    "Ġbiting": 6495,
    "Ġcrowd": 6496,
    "ĠUnfortunately": 6497,
    "pite": 6498,
    "Danny": 6499,
    "True": 6500,
    "Ġseagull": 6501,
    "Ġpaddled": 6502,
    "Ġwears": 6503,
    "Ġdelivered": 6504,
    "ĠMon": 6505,
    "Ġtwirl": 6506,
    "Ġonions": 6507,
    "Ġbuzzed": 6508,
    "Ġcomplained": 6509,
    "Ġbumpy": 6510,
    "Ġstem": 6511,
    "Ew": 6512,
    "Ġpiggy": 6513,
    "Mrs": 6514,
    "ĠAnne": 6515,
    "Ġdirection": 6516,
    "ouch": 6517,
    "Ġdived": 6518,
    "Roar": 6519,
    "Ġtangled": 6520,
    "Ġstartled": 6521,
    "ults": 6522,
    "Ġleaning": 6523,
    "bbie": 6524,
    "ĠAnt": 6525,
    "ĠJones": 6526,
    "Ġbadge": 6527,
    "ĠPo": 6528,
    "Grace": 6529,
    "Ġunp": 6530,
    "Ġdeal": 6531,
    "though": 6532,
    "Annie": 6533,
    "Ġvowed": 6534,
    "Ġnapkins": 6535,
    "anes": 6536,
    "Ġtickled": 6537,
    "Ġrisk": 6538,
    "Ġcovers": 6539,
    "Ġpec": 6540,
    "Shh": 6541,
    "Ġyells": 6542,
    "Ġsatisfied": 6543,
    "int": 6544,
    "Ġknocks": 6545,
    "Ġrefreshed": 6546,
    "tuce": 6547,
    "ĠSc": 6548,
    "cuse": 6549,
    "Ġcous": 6550,
    "Ġarrows": 6551,
    "Maggie": 6552,
    "ĠWhistle": 6553,
    "Pe": 6554,
    "Ġwipes": 6555,
    "Ġspeaking": 6556,
    "Ġlettuce": 6557,
    "Ġguessing": 6558,
    "Unfortunately": 6559,
    "ĠQuack": 6560,
    "Ġripe": 6561,
    "ĠSusan": 6562,
    "Ġhides": 6563,
    "Ġchoices": 6564,
    "ĠDodo": 6565,
    "ĠRover": 6566,
    "Buzz": 6567,
    "Ġsigned": 6568,
    "Ġslower": 6569,
    "Ġseeker": 6570,
    "Ġintroduced": 6571,
    "Ġsinger": 6572,
    "Ġcreating": 6573,
    "ĠMatt": 6574,
    "Ġfroze": 6575,
    "Ġcent": 6576,
    "uggles": 6577,
    "Ġjoked": 6578,
    "Ġsqueal": 6579,
    "Ġtoaster": 6580,
    "Ġexplorers": 6581,
    "fit": 6582,
    "Ġavo": 6583,
    "anging": 6584,
    "Sophie": 6585,
    "Ġpraying": 6586,
    "Ġwritten": 6587,
    "Ġdiscovering": 6588,
    "Ġprovided": 6589,
    "ĠDara": 6590,
    "Ġrefle": 6591,
    "ĠLion": 6592,
    "Excuse": 6593,
    "Ġmushrooms": 6594,
    "ĠJeff": 6595,
    "ĠPaws": 6596,
    "Ġpaying": 6597,
    "Ġknees": 6598,
    "ences": 6599,
    "Ġhider": 6600,
    "Ġwandering": 6601,
    "ĠAsh": 6602,
    "Ġimages": 6603,
    "Charlie": 6604,
    "Ġstung": 6605,
    "ĠWink": 6606,
    "Ġmagnets": 6607,
    "Ġbarely": 6608,
    "Ġbehaving": 6609,
    "Ġtipto": 6610,
    "?\",": 6611,
    "Ġmarked": 6612,
    "brush": 6613,
    "rrr": 6614,
    "Ġrestored": 6615,
    "ĠDee": 6616,
    "Ġleading": 6617,
    "lled": 6618,
    "Ġchuck": 6619,
    "ados": 6620,
    "Ġnine": 6621,
    "Ġgreet": 6622,
    "Teddy": 6623,
    "Ġgears": 6624,
    "Ġbravery": 6625,
    "ĠSnuggles": 6626,
    "ky": 6627,
    "Ġcompetition": 6628,
    "eal": 6629,
    "Ġoutfit": 6630,
    "oline": 6631,
    "Ġwishing": 6632,
    "Ġproperly": 6633,
    "Ġventured": 6634,
    "tle": 6635,
    "aa": 6636,
    "Ġmuscle": 6637,
    "Ġdances": 6638,
    "Ġchat": 6639,
    "Ġsalty": 6640,
    "Ġpens": 6641,
    "amb": 6642,
    "ĠBetsy": 6643,
    "Ġranger": 6644,
    "ĠZiggy": 6645,
    "Ġdeserve": 6646,
    "Ġhowever": 6647,
    "sequ": 6648,
    "Ġmatters": 6649,
    "Ġdarkness": 6650,
    "Ġburst": 6651,
    "ĠFu": 6652,
    "Ġrainy": 6653,
    "Ġcobwebs": 6654,
    "Ġruining": 6655,
    "Ġchefs": 6656,
    "Ġconsequ": 6657,
    "Ġblocking": 6658,
    "Ġbak": 6659,
    "usted": 6660,
    "itely": 6661,
    "sty": 6662,
    "Ġscur": 6663,
    "Ġvines": 6664,
    "Ġfab": 6665,
    "abel": 6666,
    "Ġfabric": 6667,
    "Ġentire": 6668,
    "Ġbasement": 6669,
    "Ġperformed": 6670,
    "Ġleast": 6671,
    "ĠBuggy": 6672,
    "Sn": 6673,
    "Ġscratches": 6674,
    "Ġheavier": 6675,
    "ĠClaire": 6676,
    "Ġmints": 6677,
    "Ġtwirling": 6678,
    "Ġavocados": 6679,
    "However": 6680,
    "ĠLinda": 6681,
    "rink": 6682,
    "fl": 6683,
    "Ġscurried": 6684,
    "Ġlosing": 6685,
    "Ġsunflowers": 6686,
    "ĠJenna": 6687,
    "Ġrainco": 6688,
    "Ġswords": 6689,
    "Tweet": 6690,
    "Ġclick": 6691,
    "agic": 6692,
    "ĠLaser": 6693,
    "Ġsilent": 6694,
    "Ġjobs": 6695,
    "Ġnecklaces": 6696,
    "Ġflames": 6697,
    "ĠLuke": 6698,
    "Ġrelief": 6699,
    "ĠGrumpy": 6700,
    "Ġsnat": 6701,
    "Ġsewed": 6702,
    "Ġrotting": 6703,
    "len": 6704,
    "Listen": 6705,
    "Follow": 6706,
    "Ġtricky": 6707,
    "Jerry": 6708,
    "Ġlighter": 6709,
    "ophia": 6710,
    "Ġbows": 6711,
    "ĠSkip": 6712,
    "Ġexha": 6713,
    "Ġsolution": 6714,
    "Ġconsequences": 6715,
    "Alex": 6716,
    "ĠLena": 6717,
    "Ġtires": 6718,
    "Ġstain": 6719,
    "Beep": 6720,
    "Ġunpacked": 6721,
    "Ab": 6722,
    "Ġpartic": 6723,
    "rance": 6724,
    "Ġraces": 6725,
    "Ġpins": 6726,
    "Ġbumps": 6727,
    "Ġwraps": 6728,
    "aisies": 6729,
    "Ġwow": 6730,
    "Ġdecorating": 6731,
    "Ġbacked": 6732,
    "cher": 6733,
    "Ġdentist": 6734,
    "Ġpurr": 6735,
    "Ġneedles": 6736,
    "Ġcautiously": 6737,
    "Ġlifting": 6738,
    "izzie": 6739,
    "ĠPr": 6740,
    "Ġaccomplish": 6741,
    "Ġtriangles": 6742,
    "Ġdaisies": 6743,
    "ept": 6744,
    "Ġhesitated": 6745,
    "Ġannoy": 6746,
    "ĠThose": 6747,
    "Ġgrowls": 6748,
    "Ġcrackers": 6749,
    "oke": 6750,
    "Ġstomped": 6751,
    "Ġgrabbing": 6752,
    "Ġcott": 6753,
    "Ġfigured": 6754,
    "Ġbodies": 6755,
    "Ġmater": 6756,
    "Ġbuying": 6757,
    "ĠTree": 6758,
    "Ġmaterial": 6759,
    "ĠRolly": 6760,
    "ĠFido": 6761,
    "ĠAdam": 6762,
    "Ġswans": 6763,
    "Ġties": 6764,
    "Ġgri": 6765,
    "vers": 6766,
    "Ġgrows": 6767,
    "ĠĊĠ": 6768,
    "Ġsweets": 6769,
    "ĠGoodbye": 6770,
    "Ġowners": 6771,
    "Ġflavor": 6772,
    "Ġcheeks": 6773,
    "ĠCathy": 6774,
    "Big": 6775,
    "Ġsuffering": 6776,
    "ĠJessie": 6777,
    "ĠEl": 6778,
    "vroom": 6779,
    "Ġfact": 6780,
    "Ġgroups": 6781,
    "bly": 6782,
    "Ġforehead": 6783,
    "Ġlungs": 6784,
    "Harry": 6785,
    "Ġrepa": 6786,
    "Ġinterested": 6787,
    "Ġbakery": 6788,
    "ĠMilo": 6789,
    "Ġfreed": 6790,
    "Lilly": 6791,
    "itches": 6792,
    "ĠNothing": 6793,
    "Ġchuckled": 6794,
    "For": 6795,
    "Ġswept": 6796,
    "Ġconn": 6797,
    "?'": 6798,
    "Ġthud": 6799,
    "Ġexhausted": 6800,
    "Tw": 6801,
    "Ġtwinkling": 6802,
    "Ġtapped": 6803,
    "Ru": 6804,
    "Ġnect": 6805,
    "rosty": 6806,
    "Ġnectar": 6807,
    "elle": 6808,
    "Ġfeast": 6809,
    "Ġdarling": 6810,
    "indr": 6811,
    "ĠMad": 6812,
    "Ġworries": 6813,
    "Ġuns": 6814,
    "Ġtunnels": 6815,
    "Ġfuzzy": 6816,
    "Ġrepaired": 6817,
    "Ġreason": 6818,
    "ĠTrust": 6819,
    "ĠCopper": 6820,
    "ĠBall": 6821,
    "Ġactivities": 6822,
    "lets": 6823,
    "Ġpecked": 6824,
    "ĠHannah": 6825,
    "Ġentrance": 6826,
    "ĠTry": 6827,
    "Ġraindr": 6828,
    "Ġmeals": 6829,
    "ĠListen": 6830,
    "Ġparticular": 6831,
    "Ġcompletely": 6832,
    "Ġmailed": 6833,
    "ctions": 6834,
    "Ġnests": 6835,
    "Ġwaiter": 6836,
    "Ġcuddly": 6837,
    "Ġsense": 6838,
    "ĠNana": 6839,
    "Ġcolored": 6840,
    "arky": 6841,
    "Ġleap": 6842,
    "step": 6843,
    "band": 6844,
    "Ġplenty": 6845,
    "Ġpeeking": 6846,
    "Ġslammed": 6847,
    "ĠCara": 6848,
    "no": 6849,
    "Ġplayers": 6850,
    "Ġmonth": 6851,
    "Ġbudge": 6852,
    "ĠBirthday": 6853,
    "ĠQ": 6854,
    "Ġscra": 6855,
    "Ġforgets": 6856,
    "Ġden": 6857,
    "Ġhandful": 6858,
    "ĠOliver": 6859,
    "Ġmer": 6860,
    "ossible": 6861,
    "Ġgenie": 6862,
    "ĠChrist": 6863,
    "Ġstool": 6864,
    "iggie": 6865,
    "Ġtalks": 6866,
    "ĠPup": 6867,
    "ĠSuzie": 6868,
    "Ġpassports": 6869,
    "Ġfeeding": 6870,
    "Ġfilms": 6871,
    "Ġbaths": 6872,
    "Ġimpossible": 6873,
    "Ġdetermination": 6874,
    "May": 6875,
    "Ġprinting": 6876,
    "boat": 6877,
    "Ġdesigned": 6878,
    "Ġbuses": 6879,
    "Ġopp": 6880,
    "ueen": 6881,
    "lephant": 6882,
    "Ġsuitcase": 6883,
    "Ġbars": 6884,
    "Ġcounts": 6885,
    "Ġstolen": 6886,
    "Ġspreading": 6887,
    "Ġspikes": 6888,
    "ĠSnap": 6889,
    "Ġwiping": 6890,
    "Ġsteer": 6891,
    "Ġlamb": 6892,
    "ĠRain": 6893,
    "Ġhonked": 6894,
    "etty": 6895,
    "nies": 6896,
    "Whee": 6897,
    "Ġcowb": 6898,
    "Ġseparated": 6899,
    "blings": 6900,
    "Ġsiblings": 6901,
    "Ġhops": 6902,
    "Ġchop": 6903,
    "Ġsewing": 6904,
    "Ġfires": 6905,
    "ĠTwinkle": 6906,
    "Ġfever": 6907,
    "Ġtwinkle": 6908,
    "Ġty": 6909,
    "Ġcamping": 6910,
    "ĠMira": 6911,
    "Ġlower": 6912,
    "Ġchanging": 6913,
    "yes": 6914,
    "retch": 6915,
    "Ġbehavi": 6916,
    "ĠBloom": 6917,
    "mas": 6918,
    "Ġliqu": 6919,
    "Ġcelebration": 6920,
    "but": 6921,
    "Ġsquealed": 6922,
    "Ġdollhouse": 6923,
    "Sunny": 6924,
    "Ġbackward": 6925,
    "Ġage": 6926,
    "Ġsnatched": 6927,
    "Ġcash": 6928,
    "ho": 6929,
    "Ġtwice": 6930,
    "lee": 6931,
    "Ġsway": 6932,
    "itched": 6933,
    "Ġcelebrating": 6934,
    "ĠPeanut": 6935,
    "Ġshrinking": 6936,
    "Ġache": 6937,
    "weed": 6938,
    "Ġkings": 6939,
    "rious": 6940,
    "Ġshops": 6941,
    "Ġkittens": 6942,
    "cope": 6943,
    "Rose": 6944,
    "ĠJessica": 6945,
    "ĠJacob": 6946,
    "ĠGina": 6947,
    "aura": 6948,
    "Ġhus": 6949,
    "Ġtouches": 6950,
    "airy": 6951,
    "Ġpancakes": 6952,
    "Ġavoid": 6953,
    "Ġspat": 6954,
    "ĠFrosty": 6955,
    "rig": 6956,
    "hog": 6957,
    "ĠNina": 6958,
    "Ġpaths": 6959,
    "ives": 6960,
    "cky": 6961,
    "ĠHold": 6962,
    "Ġrotten": 6963,
    "Ġcalmed": 6964,
    "Sandy": 6965,
    "Ġseaweed": 6966,
    "Ġdropping": 6967,
    "ĠJon": 6968,
    "ĠMel": 6969,
    "iles": 6970,
    "Pipp": 6971,
    "Ġtwisting": 6972,
    "Ġstroked": 6973,
    "Ġuntied": 6974,
    "llen": 6975,
    "Ġplayhouse": 6976,
    "ne": 6977,
    "Millie": 6978,
    "Ġstudents": 6979,
    "Ġpuppies": 6980,
    "cl": 6981,
    "ĠSof": 6982,
    "hi": 6983,
    "Ġscrews": 6984,
    "Ġastron": 6985,
    "ĠRe": 6986,
    "Ġsomebody": 6987,
    "igning": 6988,
    "Ġliquid": 6989,
    "ammy": 6990,
    "Ġwakes": 6991,
    "Ġsquish": 6992,
    "ĠWoof": 6993,
    "Ġbracelets": 6994,
    "Ġastronaut": 6995,
    "immer": 6996,
    "aren": 6997,
    "Ġthrown": 6998,
    "Ġloops": 6999,
    "ĠOther": 7000,
    "Luckily": 7001,
    "Ġwrapping": 7002,
    "Ġplain": 7003,
    "Ġtramp": 7004,
    "Ġplanning": 7005,
    "Ġskunk": 7006,
    "Ġaimed": 7007,
    "Ġpennies": 7008,
    "Ġshoo": 7009,
    "Ġlifts": 7010,
    "Ġdancers": 7011,
    "Ġsparks": 7012,
    "Ġfirefly": 7013,
    "pen": 7014,
    "Dan": 7015,
    "Ġposter": 7016,
    "yan": 7017,
    "endy": 7018,
    "Ġcust": 7019,
    "ĠChristmas": 7020,
    "Ġrewarded": 7021,
    "Ġobjects": 7022,
    "Ġdirections": 7023,
    "using": 7024,
    "ingo": 7025,
    "Ġreflection": 7026,
    "Ġhusband": 7027,
    "âĢĶ": 7028,
    "Take": 7029,
    "river": 7030,
    "Ġclues": 7031,
    "uppy": 7032,
    "Ġleads": 7033,
    "Ġincreased": 7034,
    "Ġblocked": 7035,
    "Ġrising": 7036,
    "Ġdod": 7037,
    "Ġcousin": 7038,
    "ĠYesterday": 7039,
    "ĠWithout": 7040,
    "Ġforgetting": 7041,
    "rigued": 7042,
    "Ġcustom": 7043,
    "Kate": 7044,
    "ude": 7045,
    "Ġtrampoline": 7046,
    "Ġbeginning": 7047,
    "Ġstorekeeper": 7048,
    "Ġpouted": 7049,
    "Ġzebras": 7050,
    "Ġhedgehog": 7051,
    "Ġaff": 7052,
    "ĠâĢĺ": 7053,
    "Ġborrowed": 7054,
    "ĠRollie": 7055,
    "Ġsnowfl": 7056,
    "Ġcountryside": 7057,
    "Jump": 7058,
    "Ġmesmer": 7059,
    "ĠJay": 7060,
    "Ġvehicles": 7061,
    "Ġinstrum": 7062,
    "ĠMic": 7063,
    "ĠKayla": 7064,
    "ĠUp": 7065,
    "Ġfrowning": 7066,
    "ivity": 7067,
    "Pat": 7068,
    "Under": 7069,
    "Ġmarker": 7070,
    "yond": 7071,
    "Ġpresses": 7072,
    "Ġbeyond": 7073,
    "ĠQueen": 7074,
    "Ġdamage": 7075,
    "ĠOnly": 7076,
    "iece": 7077,
    "ivery": 7078,
    "Ġfart": 7079,
    "ĠTara": 7080,
    "ĠBiggie": 7081,
    "jo": 7082,
    "Ġhealth": 7083,
    "Ġwhispers": 7084,
    "Ġswimsuit": 7085,
    "Ġslips": 7086,
    "Ġnibb": 7087,
    "ĠJulia": 7088,
    "armer": 7089,
    "Ġwarmer": 7090,
    "Ġflapping": 7091,
    "Ġtiptoed": 7092,
    "Ġregretted": 7093,
    "itted": 7094,
    "Zip": 7095,
    "Ġlaying": 7096,
    "ĠRobo": 7097,
    "ades": 7098,
    "Ġyelp": 7099,
    "ĠFire": 7100,
    "Ġrains": 7101,
    "Ġglued": 7102,
    "Ġeverybody": 7103,
    "Ġcreations": 7104,
    "Ġhearing": 7105,
    "Ġswir": 7106,
    "Ġcolder": 7107,
    "iversity": 7108,
    "ael": 7109,
    "Ġshaped": 7110,
    "ĠElephant": 7111,
    "Ġstreets": 7112,
    "Ġfins": 7113,
    "Ġrusty": 7114,
    "Ġcushions": 7115,
    "Out": 7116,
    "Ġsan": 7117,
    "Ġfarthest": 7118,
    "Ġcreativity": 7119,
    "ĠMikey": 7120,
    "ans": 7121,
    "Ġsale": 7122,
    "Always": 7123,
    "Co": 7124,
    "Ġstrongest": 7125,
    "ibbit": 7126,
    "Ġfits": 7127,
    "ĠSparky": 7128,
    "Ġbells": 7129,
    "Ġdollars": 7130,
    "ĠLarry": 7131,
    "Ġearn": 7132,
    "iam": 7133,
    "angle": 7134,
    "Ġlending": 7135,
    "ĠMoon": 7136,
    "ĠChirp": 7137,
    "eese": 7138,
    "Ġcashier": 7139,
    "Milly": 7140,
    "Ġincluding": 7141,
    "Ġsniffs": 7142,
    "Ġsank": 7143,
    "Ġraincoat": 7144,
    "ĠRich": 7145,
    "Ġtrembled": 7146,
    "Ġstopping": 7147,
    "Ġsource": 7148,
    "iti": 7149,
    "imon": 7150,
    "ĠMissy": 7151,
    "Ġwobbly": 7152,
    "Ġindeed": 7153,
    "ters": 7154,
    "Ġguests": 7155,
    "Ġsingle": 7156,
    "Ġrecommended": 7157,
    "Ġwee": 7158,
    "Ġspells": 7159,
    "Ġaccomplishment": 7160,
    "Ġbelts": 7161,
    "Ġsurprising": 7162,
    "Ġends": 7163,
    "Ġhopeful": 7164,
    "Ġseasons": 7165,
    "ĠTake": 7166,
    "ĠSnowman": 7167,
    "ĠEls": 7168,
    "Bear": 7169,
    "Ġplans": 7170,
    "ichael": 7171,
    "Ġencourag": 7172,
    "Ġsupported": 7173,
    "stick": 7174,
    "illed": 7175,
    "Ġsuffered": 7176,
    "Ġartist": 7177,
    "Ġperformance": 7178,
    "eet": 7179,
    "Nina": 7180,
    "Ġslowed": 7181,
    "Ġgross": 7182,
    "Ġflavors": 7183,
    "iding": 7184,
    "ertain": 7185,
    "Ġspins": 7186,
    "cho": 7187,
    "Quack": 7188,
    "Ġlabels": 7189,
    "Ġraindrops": 7190,
    "Ġdelivery": 7191,
    "uing": 7192,
    "arac": 7193,
    "Ġraccoon": 7194,
    "Ġforgiving": 7195,
    "obody": 7196,
    "ĠWoo": 7197,
    "Ġpours": 7198,
    "the": 7199,
    "ility": 7200,
    "Ġvanilla": 7201,
    "Ġturtles": 7202,
    "Ġstands": 7203,
    "Bill": 7204,
    "uess": 7205,
    "Ġrecipe": 7206,
    "Ġbeam": 7207,
    "Ġtying": 7208,
    "ĠSw": 7209,
    "Ġgeese": 7210,
    "Ġwilling": 7211,
    "Ġrobber": 7212,
    "Ġdrawn": 7213,
    "Vroom": 7214,
    "Ġwept": 7215,
    "ĠBones": 7216,
    "Ġcharac": 7217,
    "Ġpops": 7218,
    "Ġcorners": 7219,
    "ĠSophia": 7220,
    "elia": 7221,
    "Ġqueens": 7222,
    "Ġsailboat": 7223,
    "Ġgrip": 7224,
    "Ġdie": 7225,
    "Ġdrivers": 7226,
    "itude": 7227,
    "Ġmoo": 7228,
    "Ġhallway": 7229,
    "Ġimagining": 7230,
    "Ġseconds": 7231,
    "ĠFuzzy": 7232,
    "Mine": 7233,
    "Ġpreparing": 7234,
    "Ġwidened": 7235,
    "Ġadult": 7236,
    "ĠSpirit": 7237,
    "Ġgrocer": 7238,
    "Ġcoop": 7239,
    "Ġtalented": 7240,
    "ĠPam": 7241,
    "ĠBeaky": 7242,
    "ĠIzzy": 7243,
    "ummies": 7244,
    "Ġsailors": 7245,
    "lling": 7246,
    "Ġsofter": 7247,
    "Ġaside": 7248,
    "Ġwatering": 7249,
    "Ġsending": 7250,
    "Ġknots": 7251,
    "Ġunsure": 7252,
    "Ġtipped": 7253,
    "Lulu": 7254,
    "Ġtreehouse": 7255,
    "Ġhoriz": 7256,
    "ĠLizzie": 7257,
    "Ġnotes": 7258,
    "Ġecho": 7259,
    "igers": 7260,
    "Ġachieved": 7261,
    "Ġhorizon": 7262,
    "Ġsqueak": 7263,
    "Ġdelivering": 7264,
    "Ġpleasure": 7265,
    "Ġhotter": 7266,
    "ĠStella": 7267,
    "Clara": 7268,
    "Ġpupils": 7269,
    "Ġburrow": 7270,
    "Ġangels": 7271,
    "Ġcuriously": 7272,
    "Ellie": 7273,
    "Ġyum": 7274,
    "Ġblinking": 7275,
    "ĠJune": 7276,
    "Ġtweet": 7277,
    "Ġsymbols": 7278,
    "Ġdet": 7279,
    "ĠStretch": 7280,
    "wk": 7281,
    "Ġpassen": 7282,
    "ĠRudy": 7283,
    "ĠCindy": 7284,
    "Ġtummies": 7285,
    "Ġtiss": 7286,
    "Ġpigeons": 7287,
    "Ġfigures": 7288,
    "umbling": 7289,
    "oey": 7290,
    "Ġbandages": 7291,
    "ĠRobert": 7292,
    "Ġcoup": 7293,
    "ĠDoctor": 7294,
    "Ġrobots": 7295,
    "alph": 7296,
    "Ġtossed": 7297,
    "Ġhour": 7298,
    "Ġbackwards": 7299,
    "Ġroars": 7300,
    "Baby": 7301,
    "Ġmerma": 7302,
    "uzz": 7303,
    "Ġrather": 7304,
    "atur": 7305,
    "Maria": 7306,
    "cited": 7307,
    "ĠPlay": 7308,
    "ĠCrab": 7309,
    "Moo": 7310,
    "ighting": 7311,
    "Dolly": 7312,
    "Ġgroceries": 7313,
    "Ġzipping": 7314,
    "Put": 7315,
    "Very": 7316,
    "Ġunw": 7317,
    "prin": 7318,
    "Ġamong": 7319,
    "Ġblown": 7320,
    "Ġicing": 7321,
    "!âĢĿ.": 7322,
    "Ġrumble": 7323,
    "Ġafterwards": 7324,
    "ipper": 7325,
    "Ġscrewd": 7326,
    "ushing": 7327,
    "Ġsped": 7328,
    "Ġprove": 7329,
    "Ġglee": 7330,
    "ĠTiti": 7331,
    "ĠTia": 7332,
    "Ġdip": 7333,
    "Ġovercome": 7334,
    "Ruby": 7335,
    "Quick": 7336,
    "Ġsurfboard": 7337,
    "Ġshovels": 7338,
    "Ġslices": 7339,
    "ĠToot": 7340,
    "Ġmerry": 7341,
    "Ġwobble": 7342,
    "Ġmate": 7343,
    "ĠTurt": 7344,
    "ĠAbbie": 7345,
    "Ġheading": 7346,
    "Ġdisturbing": 7347,
    "Ġswall": 7348,
    "Ġreversed": 7349,
    "Ġfirefighters": 7350,
    "Jul": 7351,
    "Ġswallowed": 7352,
    "Ġchip": 7353,
    "eds": 7354,
    "Ġscored": 7355,
    "Ġflipped": 7356,
    "ĠJump": 7357,
    "Ġsqueezing": 7358,
    "usty": 7359,
    "Frank": 7360,
    "aty": 7361,
    "Su": 7362,
    "Ġwaking": 7363,
    "Ġintrigued": 7364,
    "Sad": 7365,
    "Like": 7366,
    "Ġmaker": 7367,
    "ĠBarky": 7368,
    "awn": 7369,
    "Betty": 7370,
    "Ġpuff": 7371,
    "Ġhawk": 7372,
    "Ġencouraging": 7373,
    "Ġaud": 7374,
    "ĠEx": 7375,
    "osen": 7376,
    "onies": 7377,
    "Ġchosen": 7378,
    "ĠRon": 7379,
    "hew": 7380,
    "ĠFarmer": 7381,
    "ĠAng": 7382,
    "Ġcouple": 7383,
    "Ġdesigns": 7384,
    "Ġslipping": 7385,
    "Ġscrewdriver": 7386,
    "Ġsquishy": 7387,
    "ĠEmmy": 7388,
    "Ġgardener": 7389,
    "Ġcenter": 7390,
    "Ġrivers": 7391,
    "Ġrespond": 7392,
    "Ġmarkers": 7393,
    "iley": 7394,
    "Ġtigers": 7395,
    "Ġjars": 7396,
    "pecting": 7397,
    "Ġfrowns": 7398,
    "bird": 7399,
    "Ġfluttered": 7400,
    "ĠSadly": 7401,
    "ĠKit": 7402,
    "Ribbit": 7403,
    "Ġfirefighter": 7404,
    "ĠSl": 7405,
    "ĠRyan": 7406,
    "Ġsuits": 7407,
    "Ġsecure": 7408,
    "Ġsprinkled": 7409,
    "Ġcreamy": 7410,
    "ashes": 7411,
    "Ġsharks": 7412,
    "Ġignoring": 7413,
    "Ġbru": 7414,
    "Ġgiggles": 7415,
    "Ġtissue": 7416,
    "Ġtighter": 7417,
    "Ġfirmly": 7418,
    "ounce": 7419,
    "ĠLaura": 7420,
    "fly": 7421,
    "Ġshown": 7422,
    "Ġfamiliar": 7423,
    "Ġthorns": 7424,
    "Spike": 7425,
    "ĠWo": 7426,
    "Ġdrawers": 7427,
    "child": 7428,
    "ĠZee": 7429,
    "Ġexpress": 7430,
    "Car": 7431,
    "ments": 7432,
    "Ġdef": 7433,
    "Ġdaring": 7434,
    "Ġcrossing": 7435,
    "Ġaudience": 7436,
    "Ġperforming": 7437,
    "Ġcoloured": 7438,
    "Ġcloudy": 7439,
    "Ġcor": 7440,
    "Ġais": 7441,
    "ĠNick": 7442,
    "ae": 7443,
    "rat": 7444,
    "Ġpedaled": 7445,
    "Get": 7446,
    "Ġmixture": 7447,
    "Ġtil": 7448,
    "Ġgracefully": 7449,
    "ggy": 7450,
    "Ġhaircuts": 7451,
    "Ġyielded": 7452,
    "Ġponies": 7453,
    "Ġdisob": 7454,
    "Ġcrowns": 7455,
    "Ġbits": 7456,
    "Ġtodd": 7457,
    "ĠSleep": 7458,
    "Ġnervously": 7459,
    "Ġhangers": 7460,
    "bbled": 7461,
    "ĠPatch": 7462,
    "Zoomy": 7463,
    "Ġpays": 7464,
    "Ġ2": 7465,
    "Ġpeck": 7466,
    "Ġstroke": 7467,
    "Ġev": 7468,
    "fall": 7469,
    "Bang": 7470,
    "een": 7471,
    "Ġrespected": 7472,
    "Ġnapped": 7473,
    "aven": 7474,
    "Ġminded": 7475,
    "ddie": 7476,
    "Bessie": 7477,
    "ably": 7478,
    "Boys": 7479,
    "Ġtested": 7480,
    "ading": 7481,
    "parent": 7482,
    "ĠChris": 7483,
    "Kim": 7484,
    "ĠUniversity": 7485,
    "ĠNear": 7486,
    "Ġbeeh": 7487,
    "ĠTurtle": 7488,
    "Ġsurfing": 7489,
    "Ġneighbours": 7490,
    "arrow": 7491,
    "vered": 7492,
    "Ġshady": 7493,
    "iona": 7494,
    "arlings": 7495,
    "Ġmagician": 7496,
    "Ġenthusiasm": 7497,
    "Ġdarlings": 7498,
    "Ġwisely": 7499,
    "Ġstitches": 7500,
    "Ġsails": 7501,
    "kend": 7502,
    "Dear": 7503,
    "Ġweekend": 7504,
    "Ġthoughts": 7505,
    "Freddy": 7506,
    "ĠTweetie": 7507,
    "Ġreminds": 7508,
    "Ġtemper": 7509,
    "oring": 7510,
    "tha": 7511,
    "antha": 7512,
    "Ġsurroundings": 7513,
    "Ġspits": 7514,
    "Ġfleas": 7515,
    "Ġteams": 7516,
    "Ġlessons": 7517,
    "Ġfills": 7518,
    "Ġflip": 7519,
    "ĠAlong": 7520,
    "Ġpaintbrush": 7521,
    "Ġmelons": 7522,
    "Ġmermaid": 7523,
    "oni": 7524,
    "Katie": 7525,
    "Ġgrandchild": 7526,
    "Ġhoops": 7527,
    "Ġexplo": 7528,
    "Ġelbow": 7529,
    "Ġsports": 7530,
    "Guess": 7531,
    "Ġlies": 7532,
    "ĠFighting": 7533,
    "rac": 7534,
    "Ġpanicked": 7535,
    "Ġcleaner": 7536,
    "Ġamount": 7537,
    "cused": 7538,
    "Ġlongest": 7539,
    "Ġscooters": 7540,
    "Ġlent": 7541,
    "ita": 7542,
    "immering": 7543,
    "Ġsill": 7544,
    "Ġbeloved": 7545,
    "Pippin": 7546,
    "Ġbeehive": 7547,
    "Alright": 7548,
    "ongrat": 7549,
    "oga": 7550,
    "lle": 7551,
    "ongratul": 7552,
    "Ġoysters": 7553,
    "Ġgrandparent": 7554,
    "Ġforgiven": 7555,
    "Ġmagazines": 7556,
    "Ġarr": 7557,
    "ĠWise": 7558,
    "Ġelf": 7559,
    "Ġrepeating": 7560,
    "Ġdiscussed": 7561,
    "Ġsweetest": 7562,
    "ĠThanks": 7563,
    "Keep": 7564,
    "Ġwadd": 7565,
    "ĠMaya": 7566,
    "Ġreass": 7567,
    "Ġlace": 7568,
    "ĠGranny": 7569,
    "Ġnightmares": 7570,
    "Ġtubes": 7571,
    "ĠWilly": 7572,
    "Ġunderstands": 7573,
    "Ġspoonful": 7574,
    "Ġnood": 7575,
    "Ġbathing": 7576,
    "ĠZoey": 7577,
    "asty": 7578,
    "Am": 7579,
    "Ġsweep": 7580,
    "Ġmanners": 7581,
    "crow": 7582,
    "Uncle": 7583,
    "Ġwrink": 7584,
    "Ġsprang": 7585,
    "Ġnur": 7586,
    "Ġbully": 7587,
    "ĠHolly": 7588,
    "Ġguide": 7589,
    "ĠYet": 7590,
    "onna": 7591,
    "ancy": 7592,
    "Ġcrew": 7593,
    "romise": 7594,
    "Jazz": 7595,
    "Ġbreathed": 7596,
    "while": 7597,
    "steps": 7598,
    "ilda": 7599,
    "ently": 7600,
    "ĠBally": 7601,
    "Ġbulbs": 7602,
    "Ġneare": 7603,
    "Ġgrassy": 7604,
    "Ġwiggly": 7605,
    "Ġtesting": 7606,
    "Ġspies": 7607,
    "Ġcoug": 7608,
    "Ġsolving": 7609,
    "Ġsheets": 7610,
    "ĠRoo": 7611,
    "Ġfootsteps": 7612,
    "ntil": 7613,
    "Afterwards": 7614,
    "Ġspeeding": 7615,
    "Ġfocused": 7616,
    "ounced": 7617,
    "cept": 7618,
    "?!\"": 7619,
    "Ġmesmerized": 7620,
    "Ġcamel": 7621,
    "Ġbraver": 7622,
    "Ġhesitant": 7623,
    "ĠSparkle": 7624,
    "Ġlicking": 7625,
    "Ġrushing": 7626,
    "ĠWell": 7627,
    "Ġjoining": 7628,
    "ĠPuppy": 7629,
    "Ġpolar": 7630,
    "Ġgreeted": 7631,
    "ĠMartha": 7632,
    "espite": 7633,
    "--": 7634,
    "ĠBubb": 7635,
    "Which": 7636,
    "Kiki": 7637,
    "Ġworn": 7638,
    "Ġmaterials": 7639,
    "Ġchanges": 7640,
    "ĠNobody": 7641,
    "undred": 7642,
    "Ġstored": 7643,
    "Ġbicycles": 7644,
    "Ġmast": 7645,
    "Ġanger": 7646,
    "Leave": 7647,
    "Ġpeacefully": 7648,
    "Ġships": 7649,
    "Ġspice": 7650,
    "Ġterrified": 7651,
    "Ġnuzz": 7652,
    "Ġgonna": 7653,
    "ĠShow": 7654,
    "Ġpolitely": 7655,
    "Snow": 7656,
    "Ġspills": 7657,
    "Ġscarecrow": 7658,
    "Ġknives": 7659,
    "Ġevil": 7660,
    "ĠMixy": 7661,
    "ppies": 7662,
    "Ġburying": 7663,
    "ca": 7664,
    "Ġhealing": 7665,
    "Ġaren": 7666,
    "Ġdonkey": 7667,
    "Ġaeroplanes": 7668,
    "freeze": 7669,
    "Even": 7670,
    "Ġseals": 7671,
    "Ġscattering": 7672,
    "Ġmiles": 7673,
    "ĠChewy": 7674,
    "amboo": 7675,
    "Ġdump": 7676,
    "Ġworrying": 7677,
    "Bee": 7678,
    "zoom": 7679,
    "beep": 7680,
    "David": 7681,
    "ĠLenny": 7682,
    "Ġpuzzled": 7683,
    "Ġstacked": 7684,
    "ĠKip": 7685,
    "Penny": 7686,
    "ĠNice": 7687,
    "Ġloses": 7688,
    "dding": 7689,
    "Ġtravelled": 7690,
    "Ġbaskets": 7691,
    "ĠWin": 7692,
    "ĠOkay": 7693,
    "Ġgazing": 7694,
    "Ġblast": 7695,
    "ipes": 7696,
    "ĠTess": 7697,
    "Hurry": 7698,
    "Ġtemperature": 7699,
    "Ġund": 7700,
    "Ġtasting": 7701,
    "Ġdripping": 7702,
    "Ġclue": 7703,
    "Ġbelieving": 7704,
    "Ġpinching": 7705,
    "erm": 7706,
    "Ġsoaking": 7707,
    "Ġrats": 7708,
    "Ġ10": 7709,
    "isc": 7710,
    "Ġsandy": 7711,
    "rect": 7712,
    "ĠIsn": 7713,
    "ĠSimon": 7714,
    "rey": 7715,
    "anwhile": 7716,
    "ĠAbi": 7717,
    "Binky": 7718,
    "Ġpunishment": 7719,
    "Ġbanged": 7720,
    "Ġhumans": 7721,
    "Ġcrashing": 7722,
    "Ġforce": 7723,
    "ĠAna": 7724,
    "Ġhundred": 7725,
    "Ġgest": 7726,
    "ĠLia": 7727,
    "Ġswimmer": 7728,
    "ĠChess": 7729,
    "Ġsnowflakes": 7730,
    "Ġrelaxing": 7731,
    "Ġresisted": 7732,
    "Ġbeeped": 7733,
    "ĠFairy": 7734,
    "Ġquarreled": 7735,
    "form": 7736,
    "elie": 7737,
    "Ġramp": 7738,
    "ĠWendy": 7739,
    "Ġjoins": 7740,
    "abby": 7741,
    "Ġbackpacks": 7742,
    "ĠPh": 7743,
    "years": 7744,
    "Ġdressing": 7745,
    "Ġdelayed": 7746,
    "Ġtoddler": 7747,
    "ĠLuckily": 7748,
    "Ġflight": 7749,
    "Ġcovering": 7750,
    "ĠTe": 7751,
    "orter": 7752,
    "Two": 7753,
    "Open": 7754,
    "By": 7755,
    "Ġencouragement": 7756,
    "Ġbenches": 7757,
    "Ġtoward": 7758,
    "Ġscraped": 7759,
    "Ġpurpose": 7760,
    "Ġfocus": 7761,
    "ĠJudy": 7762,
    "Bow": 7763,
    "Ġcorrect": 7764,
    "'.\"": 7765,
    "Ġlipstick": 7766,
    "Ġbamboo": 7767,
    "Spe": 7768,
    "Ġtwinkled": 7769,
    "Ġpotion": 7770,
    "Ġpermitted": 7771,
    "Ġmonths": 7772,
    "ĠCow": 7773,
    "Ġlanguages": 7774,
    "Ġorders": 7775,
    "Ġfreedom": 7776,
    "Tony": 7777,
    "Ġrisks": 7778,
    "Ġpoppies": 7779,
    "Ġmaster": 7780,
    "shm": 7781,
    "Ġnoodles": 7782,
    "Ġfaded": 7783,
    "Ġwounds": 7784,
    "shmallow": 7785,
    "rier": 7786,
    "Kids": 7787,
    "isions": 7788,
    "ĠJojo": 7789,
    "Ġcreams": 7790,
    "Ġbirdhouse": 7791,
    "Ġcells": 7792,
    "Ġannoyed": 7793,
    "ĠHerb": 7794,
    "opes": 7795,
    "Ġsniffing": 7796,
    "Ġcheers": 7797,
    "Ġadults": 7798,
    "Birdy": 7799,
    "Ġunwra": 7800,
    "ecca": 7801,
    "Buzzy": 7802,
    "Ġpuck": 7803,
    "Ġopinions": 7804,
    "Ġfloats": 7805,
    "andas": 7806,
    "Instead": 7807,
    "Ġflown": 7808,
    "Ġsneezes": 7809,
    "Ġscen": 7810,
    "Ġhandsome": 7811,
    "Ġnodding": 7812,
    "ĠMint": 7813,
    "Ġsmelling": 7814,
    "Ġburnt": 7815,
    "Ġ5": 7816,
    "Ġdrifted": 7817,
    "ider": 7818,
    "bage": 7819,
    "Ġwithin": 7820,
    "Ġscient": 7821,
    "Ġheight": 7822,
    "Ġdamaged": 7823,
    "Ġbothering": 7824,
    "Ġtearing": 7825,
    "Ġslither": 7826,
    "Ġpleaded": 7827,
    "Ġinstruments": 7828,
    "Ġease": 7829,
    "ĠAli": 7830,
    "da": 7831,
    "Back": 7832,
    "Ġscientist": 7833,
    "ĠMarie": 7834,
    "Mira": 7835,
    "Goodnight": 7836,
    "Ġpound": 7837,
    "Ġseller": 7838,
    "Ġhanding": 7839,
    "Ġgerm": 7840,
    "ĠSay": 7841,
    "Ġwasting": 7842,
    "Ġfiles": 7843,
    "Ġresults": 7844,
    "Ġdreamt": 7845,
    "ĠMabel": 7846,
    "bell": 7847,
    "Ġexplains": 7848,
    "Ġdestroying": 7849,
    "Ġbrushing": 7850,
    "ousy": 7851,
    "Ġhiss": 7852,
    "Ġcharacters": 7853,
    "ĠRazor": 7854,
    "ĠCr": 7855,
    "Carl": 7856,
    "Ġcertain": 7857,
    "ĠSte": 7858,
    "Pandy": 7859,
    "Behind": 7860,
    "Ġsweaty": 7861,
    "ĠHug": 7862,
    "unched": 7863,
    "Ġbusiness": 7864,
    "ĠRobbie": 7865,
    "Ġtalents": 7866,
    "Ġonward": 7867,
    "Try": 7868,
    "Ġengines": 7869,
    "Ġbravest": 7870,
    "ition": 7871,
    "Ġsternly": 7872,
    "ĠPen": 7873,
    "ĠJanie": 7874,
    "prints": 7875,
    "Ġpostman": 7876,
    "Ġmosquitoes": 7877,
    "Ġminds": 7878,
    "under": 7879,
    "cake": 7880,
    "Ġtuck": 7881,
    "Ġscares": 7882,
    "urious": 7883,
    "Ġstomp": 7884,
    "Ġapologised": 7885,
    "uel": 7886,
    "Ġmanag": 7887,
    "Ġsnuck": 7888,
    "Ġbitten": 7889,
    "attered": 7890,
    "Ġtilted": 7891,
    "Ġswitched": 7892,
    "Ġreminding": 7893,
    "Ġdecisions": 7894,
    "Ġsingers": 7895,
    "Ġdesper": 7896,
    "Ġbehavior": 7897,
    "ĠPoor": 7898,
    "ashing": 7899,
    "ĠJudge": 7900,
    "bbers": 7901,
    "inny": 7902,
    "Ġsqueaked": 7903,
    "Ġpeeled": 7904,
    "ĠEverybody": 7905,
    "Ġyumm": 7906,
    "Ġpurrs": 7907,
    "ĠBra": 7908,
    "Ġtreated": 7909,
    "Ġsmashed": 7910,
    "Ġrustling": 7911,
    "Ġdisplayed": 7912,
    "ĠUntil": 7913,
    "Ġneatly": 7914,
    "Ġmatey": 7915,
    "Ġplanting": 7916,
    "ĠBess": 7917,
    "Ġmarshmallow": 7918,
    "Ġinsp": 7919,
    "Ġyelped": 7920,
    "Ġsy": 7921,
    "Ġgrandparents": 7922,
    "Ġcracks": 7923,
    "Ġbellies": 7924,
    "aver": 7925,
    "Ġshines": 7926,
    "Ġscamp": 7927,
    "ĠNavy": 7928,
    "Ġhoo": 7929,
    "Ġfailed": 7930,
    "Ġcoloring": 7931,
    "ĠYoga": 7932,
    "line": 7933,
    "Ġzooms": 7934,
    "ĠMake": 7935,
    "rup": 7936,
    "Ġnasty": 7937,
    "Ġbreathing": 7938,
    "Ġcombed": 7939,
    "Ġpandas": 7940,
    "Ġdespite": 7941,
    "Ġaddress": 7942,
    "ighing": 7943,
    "Ġwaterfall": 7944,
    "uffin": 7945,
    "omp": 7946,
    "cc": 7947,
    "ĠLoop": 7948,
    "ĠAngel": 7949,
    "Tilly": 7950,
    "Ġwider": 7951,
    "Ġrobbers": 7952,
    "Ġantic": 7953,
    "Play": 7954,
    "Abigail": 7955,
    "Ġsweaters": 7956,
    "Ġechoed": 7957,
    "Ġdoorway": 7958,
    "ĠTodd": 7959,
    "evin": 7960,
    "Ġedges": 7961,
    "Ġinj": 7962,
    "ĠShadow": 7963,
    "Aunt": 7964,
    "Ġgap": 7965,
    "Ġdisobey": 7966,
    "ĠBlinky": 7967,
    "wise": 7968,
    "Liz": 7969,
    "ĠMichael": 7970,
    "Ġtar": 7971,
    "ĠFlick": 7972,
    "oscope": 7973,
    "orking": 7974,
    "Wake": 7975,
    "Ġtaped": 7976,
    "Ġmagnif": 7977,
    "ulp": 7978,
    "father": 7979,
    "Ġscolds": 7980,
    "Ġflaps": 7981,
    "Ġaction": 7982,
    "Ġcrawls": 7983,
    "ĠMindy": 7984,
    "Ros": 7985,
    "Ġswap": 7986,
    "Ġgobbled": 7987,
    "Ġbacks": 7988,
    "ĠGary": 7989,
    "Ġwarri": 7990,
    "ĠFishy": 7991,
    "ĠEddie": 7992,
    "Slow": 7993,
    "Ġsteth": 7994,
    "Ġsever": 7995,
    "Ġshinier": 7996,
    "Ġprobably": 7997,
    "Ġnewspapers": 7998,
    "Ġseveral": 7999,
    "Ġocc": 8000,
    "Rock": 8001,
    "Lena": 8002,
    "Ġencount": 8003,
    "ĠMeg": 8004,
    "Ġserving": 8005,
    "Ġquieter": 8006,
    "Ġplucked": 8007,
    "Ġconnected": 8008,
    "tock": 8009,
    "ĠShare": 8010,
    "Ġouch": 8011,
    "igger": 8012,
    "Ted": 8013,
    "Adam": 8014,
    "Ġgesture": 8015,
    "Too": 8016,
    "Fl": 8017,
    "Ġstudent": 8018,
    "Ġplot": 8019,
    "Ġdoorbell": 8020,
    "Ġsquaw": 8021,
    "Ġcares": 8022,
    "fire": 8023,
    "Ġrescuing": 8024,
    "Ġgrandson": 8025,
    "ĠSe": 8026,
    "Ġspy": 8027,
    "Ġsimply": 8028,
    "Ġrows": 8029,
    "Ġgoo": 8030,
    "iel": 8031,
    "Ġwhistles": 8032,
    "mies": 8033,
    "vant": 8034,
    "Shrink": 8035,
    "Magic": 8036,
    "Ġsnaps": 8037,
    "Ġshorter": 8038,
    "Ġastronauts": 8039,
    "ssss": 8040,
    "Ġunpacking": 8041,
    "Ġcottage": 8042,
    "ĠTime": 8043,
    "Ġswo": 8044,
    "Ġaccidents": 8045,
    "ibi": 8046,
    "Ġswollen": 8047,
    "Ġmood": 8048,
    "ĠNut": 8049,
    "Steve": 8050,
    "abelle": 8051,
    "ĠZippy": 8052,
    "ĠMousy": 8053,
    "anie": 8054,
    "Zara": 8055,
    "Ġbothered": 8056,
    "Hannah": 8057,
    "Ġstethoscope": 8058,
    "found": 8059,
    "Ġtrusting": 8060,
    "Ġcausing": 8061,
    "Mat": 8062,
    "Mad": 8063,
    "Ġleapt": 8064,
    "Ġdresser": 8065,
    "aint": 8066,
    "Ġsou": 8067,
    "Ġproper": 8068,
    "Ġpills": 8069,
    "retty": 8070,
    "Ġthroughout": 8071,
    "Olive": 8072,
    "Ġrunner": 8073,
    "Ġprayers": 8074,
    "ĠDina": 8075,
    "Ġjoyful": 8076,
    "Thomas": 8077,
    "mates": 8078,
    "Ġlocks": 8079,
    "ĠPrince": 8080,
    "Jamie": 8081,
    "Ġgoats": 8082,
    "what": 8083,
    "Ġtarget": 8084,
    "rest": 8085,
    "ĠWait": 8086,
    "ĠKaren": 8087,
    "Ġdears": 8088,
    "ĠBang": 8089,
    "artled": 8090,
    "Red": 8091,
    "Ġwaddled": 8092,
    "Ġmunch": 8093,
    "Ġflips": 8094,
    "ĠCro": 8095,
    "Ġlowered": 8096,
    "Ġstepping": 8097,
    "Ġcons": 8098,
    "ĠJackie": 8099,
    "Ġteachers": 8100,
    "Ġcowboy": 8101,
    "ĠToys": 8102,
    "Ġinches": 8103,
    "Ġenvelopes": 8104,
    "ears": 8105,
    "Ġchar": 8106,
    "ĠVroom": 8107,
    "Ġexplorer": 8108,
    "Ġanticip": 8109,
    "Ġplayd": 8110,
    "ĠReady": 8111,
    "ĠRuff": 8112,
    "ĠRalph": 8113,
    "unity": 8114,
    "Nice": 8115,
    "Finn": 8116,
    "ĠBad": 8117,
    "ening": 8118,
    "Ġknocking": 8119,
    "Ġfloors": 8120,
    "Ġefforts": 8121,
    "ĠPl": 8122,
    "Ġuniforms": 8123,
    "lied": 8124,
    "ĠTri": 8125,
    "Ġaware": 8126,
    "Ġfootprints": 8127,
    "Someone": 8128,
    "Ġnearly": 8129,
    "ĠFiona": 8130,
    "llas": 8131,
    "Ġdisc": 8132,
    "ĠRia": 8133,
    "ivi": 8134,
    "Ġwhimp": 8135,
    "Ġtrot": 8136,
    "Ġsens": 8137,
    "Ġglitt": 8138,
    "Ġappreciation": 8139,
    "oosh": 8140,
    "Ġnecks": 8141,
    "Ġcollap": 8142,
    "Ġchecks": 8143,
    "Ġlapt": 8144,
    "Ġexcept": 8145,
    "Ġplug": 8146,
    "Ġcharge": 8147,
    "ĠJacky": 8148,
    "Ġfluttering": 8149,
    "Ġumbrellas": 8150,
    "Ġstamped": 8151,
    "acy": 8152,
    "Ġsandcastles": 8153,
    "ĠDavey": 8154,
    "Ġstatues": 8155,
    "ĠHoney": 8156,
    "omb": 8157,
    "iscuit": 8158,
    "ails": 8159,
    "Hoppy": 8160,
    "Ġshrank": 8161,
    "ĠAmelia": 8162,
    "rily": 8163,
    "Ġprick": 8164,
    "Ġfinishing": 8165,
    "Ġadds": 8166,
    "rons": 8167,
    "Ġstroll": 8168,
    "Ġhunters": 8169,
    "Ġdodged": 8170,
    "Ġchocolates": 8171,
    "Ġpassengers": 8172,
    "Ġgerms": 8173,
    "oger": 8174,
    "Ġwrigg": 8175,
    "Ġaprons": 8176,
    "Ġaisle": 8177,
    "Ġsets": 8178,
    ".'\"": 8179,
    "ĠGerry": 8180,
    "Ġweeds": 8181,
    "Ġnovels": 8182,
    "order": 8183,
    "Ġdemanding": 8184,
    "ĠTaking": 8185,
    "Ġscratching": 8186,
    "Ġmeows": 8187,
    "issa": 8188,
    "Dr": 8189,
    "Ġnurses": 8190,
    "Lucky": 8191,
    "Ġminding": 8192,
    "Ġdiscussing": 8193,
    "urrender": 8194,
    "Ġkilled": 8195,
    "Ġdriveway": 8196,
    "ĠCari": 8197,
    "Ġbecomes": 8198,
    "Ġtoolbox": 8199,
    "Ġlaptop": 8200,
    "Ġhaird": 8201,
    "ĠEliz": 8202,
    "Ġposit": 8203,
    "Ġattack": 8204,
    "ĠSadie": 8205,
    "ĠDespite": 8206,
    "Speedy": 8207,
    "ĠGl": 8208,
    "sol": 8209,
    "Ġscampered": 8210,
    "Ġbounces": 8211,
    "Ġsupplied": 8212,
    "Ġsprays": 8213,
    "Ġdeed": 8214,
    "Ġtempt": 8215,
    "Ġsuggestion": 8216,
    "Ġfriendships": 8217,
    "Ġburns": 8218,
    "Coco": 8219,
    "Ġslapping": 8220,
    "Ġclosing": 8221,
    "Arrr": 8222,
    "Ġinvites": 8223,
    "Ġbelongings": 8224,
    "Ġanticipation": 8225,
    "Ġspringing": 8226,
    "Ġform": 8227,
    "Ġerase": 8228,
    "Ġcotton": 8229,
    "ĠStan": 8230,
    "Ġtwists": 8231,
    "Ġrays": 8232,
    "Ġsnuggle": 8233,
    "Ġforgives": 8234,
    "Ġmodels": 8235,
    "Ġshall": 8236,
    "Ġmassages": 8237,
    "Ġhumming": 8238,
    "onnie": 8239,
    "Ġresponded": 8240,
    "Ġnewfound": 8241,
    "Ġghosts": 8242,
    "Ġexpecting": 8243,
    "ĠShelly": 8244,
    "Ġcheated": 8245,
    "Does": 8246,
    "ĠWooly": 8247,
    "Gigi": 8248,
    "otte": 8249,
    "Ġtraveling": 8250,
    "ĠNe": 8251,
    "Ġcond": 8252,
    "Ġbattle": 8253,
    "Ġalthough": 8254,
    "alloween": 8255,
    "Ġmommies": 8256,
    "Ġinvitations": 8257,
    "Ġcarries": 8258,
    "Ġaim": 8259,
    "Ġrefreshing": 8260,
    "Ġpresented": 8261,
    "Ġconc": 8262,
    "hel": 8263,
    "Ġtwenty": 8264,
    "Ġrowed": 8265,
    "ĠBumpy": 8266,
    "ots": 8267,
    "Ġsquir": 8268,
    "rie": 8269,
    "arlotte": 8270,
    "Ġfoxes": 8271,
    "Ġcooper": 8272,
    "Ġfinal": 8273,
    "Ġduckling": 8274,
    "Ġcafe": 8275,
    "ĠBibi": 8276,
    "Pip": 8277,
    "Ġmarshmallows": 8278,
    "Ġclicked": 8279,
    "ĠZipper": 8280,
    "oor": 8281,
    "Ġjets": 8282,
    "Ġdesigning": 8283,
    "Ġbeaver": 8284,
    "five": 8285,
    "ĠMuffin": 8286,
    "ĠHalloween": 8287,
    "Ġmugs": 8288,
    "ĠWhoever": 8289,
    "Ġdrown": 8290,
    "ĠAlthough": 8291,
    "Ġtricycle": 8292,
    "Ġpicnics": 8293,
    "Ġoppos": 8294,
    "Ġconvin": 8295,
    "ĠRuth": 8296,
    "ĠExcited": 8297,
    "iens": 8298,
    "ĠCle": 8299,
    "po": 8300,
    "Ġscoops": 8301,
    "Ġcongratul": 8302,
    "ĠPop": 8303,
    "ĠMaddie": 8304,
    "Sadly": 8305,
    "ĠâĢĶ": 8306,
    "Ġtravels": 8307,
    "Ġaliens": 8308,
    "Ġtests": 8309,
    "Ġquestioned": 8310,
    "ĠSpeed": 8311,
    "inted": 8312,
    "Ġstrips": 8313,
    "Ġcraft": 8314,
    "Near": 8315,
    "atty": 8316,
    "Mouse": 8317,
    "covered": 8318,
    "Ġdefe": 8319,
    "ĠFlutter": 8320,
    "ĠBubba": 8321,
    "iri": 8322,
    "Br": 8323,
    "Ġfights": 8324,
    "roken": 8325,
    "Ball": 8326,
    "Ġopposite": 8327,
    "ĠBiggy": 8328,
    "Hmm": 8329,
    "Find": 8330,
    "Elly": 8331,
    "Chloe": 8332,
    "ĠIm": 8333,
    "Ġrout": 8334,
    "Ġgrandfather": 8335,
    "Ġencountered": 8336,
    "Ġafford": 8337,
    "ĠNever": 8338,
    "Ġdecl": 8339,
    "inch": 8340,
    "Ġraising": 8341,
    "iment": 8342,
    "Ġupside": 8343,
    "ĠVivi": 8344,
    "Meanwhile": 8345,
    "Jess": 8346,
    "Ġflashed": 8347,
    "Ġcalmly": 8348,
    "ĠRita": 8349,
    "Ġyawning": 8350,
    "Ġsincere": 8351,
    "Ġrealizes": 8352,
    "aturday": 8353,
    "Trust": 8354,
    "Choo": 8355,
    "Ġcrystals": 8356,
    "Ġbuddy": 8357,
    "ĠSamantha": 8358,
    "Ġcupcakes": 8359,
    "Ġbuckled": 8360,
    "byes": 8361,
    "Both": 8362,
    "Ġwinners": 8363,
    "Ġdefin": 8364,
    "verse": 8365,
    "ris": 8366,
    "',": 8367,
    "Ġweapons": 8368,
    "Ġcaw": 8369,
    "shadow": 8370,
    "Josh": 8371,
    "Ġpackages": 8372,
    "Ġcheat": 8373,
    "ĠSaturday": 8374,
    "Ġsacks": 8375,
    "Ġmesses": 8376,
    "Ġgoodbyes": 8377,
    "Ġcoach": 8378,
    "Ġattem": 8379,
    "quet": 8380,
    "Ġconvers": 8381,
    "ĠTruck": 8382,
    "ĠFlo": 8383,
    "val": 8384,
    "Ġdrift": 8385,
    "Ġcaps": 8386,
    "ĠMina": 8387,
    "ĠEva": 8388,
    "emies": 8389,
    "Ġenemies": 8390,
    "asha": 8391,
    "Ġyummiest": 8392,
    "Ġscrub": 8393,
    "Ġswallow": 8394,
    "Ġreturning": 8395,
    "rian": 8396,
    "Ġadmiration": 8397,
    "ĠSofty": 8398,
    "ĠMegan": 8399,
    "Since": 8400,
    "Ġsprout": 8401,
    "ĠLouise": 8402,
    "Ġunable": 8403,
    "ĠPlaying": 8404,
    "ĠAnother": 8405,
    "ugging": 8406,
    "ooks": 8407,
    "Ġsadder": 8408,
    "Ġfreezing": 8409,
    "Ġbrightest": 8410,
    "Ġbless": 8411,
    "ĠYawn": 8412,
    "Ġrespon": 8413,
    "ĠMan": 8414,
    "reverse": 8415,
    "Ġresponse": 8416,
    "Ġcosy": 8417,
    "ĠOh": 8418,
    "Ġdiamonds": 8419,
    "Ġbride": 8420,
    "stalk": 8421,
    "Ġreapp": 8422,
    "Ġopport": 8423,
    "Ġhonking": 8424,
    "Ġgarbage": 8425,
    "Ġwhispering": 8426,
    "Ġstretches": 8427,
    "Ġprevented": 8428,
    "erk": 8429,
    "antastic": 8430,
    "Ġwhoever": 8431,
    "Ġodd": 8432,
    "Ġawful": 8433,
    "ĠGray": 8434,
    "alth": 8435,
    "Ġweighs": 8436,
    "Ġjourneys": 8437,
    "Ġawoke": 8438,
    "Brrr": 8439,
    "Ġtraps": 8440,
    "Ġspices": 8441,
    "Ġdragonfly": 8442,
    "off": 8443,
    "Ġborn": 8444,
    "Ġreassured": 8445,
    "Ġclip": 8446,
    "ivia": 8447,
    "Ġstall": 8448,
    "Ġbeanstalk": 8449,
    "Ġargum": 8450,
    "Ġexamining": 8451,
    "Ġdefinitely": 8452,
    "Ġbeetles": 8453,
    "Ġautomobiles": 8454,
    "ĠMaisy": 8455,
    "mine": 8456,
    "ici": 8457,
    "Hop": 8458,
    "Ġvisitors": 8459,
    "Ġstuffing": 8460,
    "Ġplaydate": 8461,
    "Ġwashes": 8462,
    "cie": 8463,
    "broken": 8464,
    "Ġwiser": 8465,
    "Ġcustomer": 8466,
    "uper": 8467,
    "emma": 8468,
    "Rachel": 8469,
    "Ġtravelling": 8470,
    "ĠSofia": 8471,
    "ĠJolly": 8472,
    "ĠFlop": 8473,
    "ouquet": 8474,
    "Ġhairdress": 8475,
    "Ġbouquet": 8476,
    "ĠNurse": 8477,
    "orse": 8478,
    "bble": 8479,
    ",'": 8480,
    "Ġtumbled": 8481,
    "Ġdecoration": 8482,
    "Ġcampfire": 8483,
    "ĠElle": 8484,
    "Ġhonesty": 8485,
    "Ġbud": 8486,
    "vy": 8487,
    "ebecca": 8488,
    "Only": 8489,
    "Ġbomb": 8490,
    "Ġwelcoming": 8491,
    "Ġoffering": 8492,
    "Ġwealth": 8493,
    "Ġtroubles": 8494,
    "Ġoccas": 8495,
    "Ġincreasing": 8496,
    "ĠOt": 8497,
    "ĠJax": 8498,
    "ĠHello": 8499,
    "Ġloudest": 8500,
    "Ġinspired": 8501,
    "Ġtype": 8502,
    "Ġparted": 8503,
    "Ġgroan": 8504,
    "ĠChick": 8505,
    "ĠNutty": 8506,
    "irac": 8507,
    "Ġwhales": 8508,
    "ĠThunder": 8509,
    "ĠRicky": 8510,
    "yl": 8511,
    "Ġdeclared": 8512,
    "Ġcorrectly": 8513,
    "yler": 8514,
    "ooky": 8515,
    "fus": 8516,
    "Ġbeaks": 8517,
    "ĠQuacky": 8518,
    "athan": 8519,
    "Ġcleared": 8520,
    "Ġcowboys": 8521,
    "Ġnuzzled": 8522,
    "ĠDotty": 8523,
    "Ġprizes": 8524,
    "Ġexch": 8525,
    "Finny": 8526,
    "Ġwarmly": 8527,
    "ĠMissile": 8528,
    "Ġrewards": 8529,
    "Ġobeyed": 8530,
    "Ġcustomers": 8531,
    "Should": 8532,
    "Ġsirens": 8533,
    "Ġcomforting": 8534,
    "ĠFel": 8535,
    "shaped": 8536,
    "Ġconnect": 8537,
    "ĠFlappy": 8538,
    "match": 8539,
    "Ġtowns": 8540,
    "ĠMagic": 8541,
    "ĠBingo": 8542,
    "elieve": 8543,
    "Ġrely": 8544,
    "ĠVicky": 8545,
    "Honey": 8546,
    "Ġtrigger": 8547,
    "Ġowns": 8548,
    "Ġinsisting": 8549,
    "Ġfantastic": 8550,
    "Ġbends": 8551,
    "ĠFe": 8552,
    "Ġspoiling": 8553,
    "Ġhairdresser": 8554,
    "Ġsurrendered": 8555,
    "Ġsupporting": 8556,
    "Ġshares": 8557,
    "Ġposes": 8558,
    "Ġpipes": 8559,
    "Ġcleans": 8560,
    "rench": 8561,
    "Sun": 8562,
    "Outside": 8563,
    "Julie": 8564,
    "Ġwrinkled": 8565,
    "ĠCook": 8566,
    "Ġchopped": 8567,
    "Ġrecorder": 8568,
    "Ġmoons": 8569,
    "Ġbeaming": 8570,
    "unes": 8571,
    "ellow": 8572,
    "Beth": 8573,
    "Ġthanking": 8574,
    "Ġsnowy": 8575,
    "ĠWolf": 8576,
    "Ġscurry": 8577,
    "Ġexperien": 8578,
    "Ġenjoyable": 8579,
    "Ġactive": 8580,
    "Ġcoral": 8581,
    "ĠPiggy": 8582,
    "Ġenviron": 8583,
    "Ġdollar": 8584,
    "ĠKevin": 8585,
    "worm": 8586,
    "elope": 8587,
    "Ġloc": 8588,
    "Je": 8589,
    "Ġstreamers": 8590,
    "ĠBub": 8591,
    "udged": 8592,
    "ĠPatty": 8593,
    "ĠMother": 8594,
    "ĠZack": 8595,
    "inger": 8596,
    "Suzy": 8597,
    "Ġexamp": 8598,
    "Ġshorts": 8599,
    "Ġshooed": 8600,
    "Ġenvironment": 8601,
    "Tree": 8602,
    "Ġill": 8603,
    "Ġscent": 8604,
    "Ġbruises": 8605,
    "uster": 8606,
    "Ġgrat": 8607,
    "ĠLuc": 8608,
    "Bo": 8609,
    "Ġhisses": 8610,
    "Ġsteering": 8611,
    "Ġself": 8612,
    "Ġplugged": 8613,
    "ĠElsa": 8614,
    "Ġwarrior": 8615,
    "Ġvisits": 8616,
    "Ġexercises": 8617,
    "screen": 8618,
    "irl": 8619,
    "aptain": 8620,
    "Ġdangers": 8621,
    "Ġcuddles": 8622,
    "ĠRel": 8623,
    "ĠMin": 8624,
    "ĠAr": 8625,
    "Ġunfortunately": 8626,
    "Ġsquished": 8627,
    "Ġsigning": 8628,
    "ĠLight": 8629,
    "bee": 8630,
    "Ray": 8631,
    "Ġpilots": 8632,
    "Ġdisappoint": 8633,
    "munk": 8634,
    "Ġgratitude": 8635,
    "Ġapplauding": 8636,
    "Ġproviding": 8637,
    "ĠMoppy": 8638,
    "alf": 8639,
    "Ġtickles": 8640,
    "Ġting": 8641,
    "ĠRub": 8642,
    "Grow": 8643,
    "Ġstorms": 8644,
    "Ġnights": 8645,
    "Ġjud": 8646,
    "Ġconvinced": 8647,
    "Ġbadger": 8648,
    "ĠElsie": 8649,
    "Ġyoun": 8650,
    "Ġresponsib": 8651,
    "Ġchoosing": 8652,
    "ĠKelly": 8653,
    "Joy": 8654,
    "Ġyoungest": 8655,
    "Ġnearest": 8656,
    "Ġbrains": 8657,
    "Ġactivity": 8658,
    "Abby": 8659,
    "Ġexploded": 8660,
    "Ġcoughed": 8661,
    "Ġarranged": 8662,
    "Claire": 8663,
    "Ġrewarding": 8664,
    "ĠTre": 8665,
    "ĠFly": 8666,
    "pr": 8667,
    "good": 8668,
    "erpiece": 8669,
    "Ġsunscreen": 8670,
    "Ġpeep": 8671,
    "Ġbond": 8672,
    "ĠFloppy": 8673,
    "asers": 8674,
    "Mon": 8675,
    "ĠTweety": 8676,
    "ĠSweet": 8677,
    "ĠKaty": 8678,
    "ĠJoan": 8679,
    "ĠSal": 8680,
    "ilities": 8681,
    "Ġannoying": 8682,
    "sn": 8683,
    "Ġsoapy": 8684,
    "meow": 8685,
    "Splash": 8686,
    "Ġrails": 8687,
    "Ġlaces": 8688,
    "Ġthreads": 8689,
    "Ġtapping": 8690,
    "Ġoffic": 8691,
    "Ġappreciated": 8692,
    "ĠPine": 8693,
    "ĠPhil": 8694,
    "boards": 8695,
    "Ġweighing": 8696,
    "Ġheartbroken": 8697,
    "Ġemerged": 8698,
    "Ġcongratulated": 8699,
    "ĠPick": 8700,
    "Danger": 8701,
    "Ġtin": 8702,
    "ĠSil": 8703,
    "Ġcrocodiles": 8704,
    "Ġclerk": 8705,
    "Ġscram": 8706,
    "Ġattempt": 8707,
    "ĠNancy": 8708,
    "water": 8709,
    "Ahoy": 8710,
    "Ġsnug": 8711,
    "Ġmessed": 8712,
    "Ġexample": 8713,
    "Ġdial": 8714,
    "ĠKay": 8715,
    "ĠAny": 8716,
    "Momma": 8717,
    "Ġhooks": 8718,
    "ĠJonny": 8719,
    "Ġtops": 8720,
    "Ġchipmunk": 8721,
    "Ġsoot": 8722,
    "Ġguarding": 8723,
    "Ġbathed": 8724,
    "Ġmanager": 8725,
    "ĠTippy": 8726,
    "ortunately": 8727,
    "ĠMicroscope": 8728,
    "Friends": 8729,
    "ĠDe": 8730,
    "etah": 8731,
    "Snowy": 8732,
    "Ġmasterpiece": 8733,
    "ĠBaa": 8734,
    "Ġerasers": 8735,
    "Ġtips": 8736,
    "Ġfinishes": 8737,
    "Ġfet": 8738,
    "Ġcommon": 8739,
    "ĠTomorrow": 8740,
    "mbers": 8741,
    "Ġtrotted": 8742,
    "Ġnibbled": 8743,
    "Ġmembers": 8744,
    "Ġdigs": 8745,
    "People": 8746,
    "Ġkinder": 8747,
    "Ġcheetah": 8748,
    "Ġparticularly": 8749,
    "Ġchews": 8750,
    "Ġblond": 8751,
    "ircle": 8752,
    "Ġrips": 8753,
    "Ġbeast": 8754,
    "Lizzy": 8755,
    "Ġargument": 8756,
    "ative": 8757,
    "Ġfaith": 8758,
    "ĠHelping": 8759,
    "Ġearned": 8760,
    "Anne": 8761,
    "Ġobserving": 8762,
    "Ġforgiveness": 8763,
    "ĠJoke": 8764,
    "ĠCici": 8765,
    "chievous": 8766,
    "Ġinstantly": 8767,
    "Ġfishes": 8768,
    "Ġexperienced": 8769,
    "Ġcurl": 8770,
    "Ġcheaper": 8771,
    "ĠJumpy": 8772,
    "Rosie": 8773,
    "Ġmischievous": 8774,
    "Ġgenerosity": 8775,
    "Ġcages": 8776,
    "ĠTwist": 8777,
    "Gr": 8778,
    "Baa": 8779,
    "Ġmeowing": 8780,
    "Ġfoam": 8781,
    "mered": 8782,
    "Cindy": 8783,
    "Ġstores": 8784,
    "Ġgrandd": 8785,
    "ĠAg": 8786,
    "etchup": 8787,
    "Ġmattered": 8788,
    "Ġteles": 8789,
    "Ġpasses": 8790,
    "Ġlimp": 8791,
    "Sque": 8792,
    "Ġsleeps": 8793,
    "iolet": 8794,
    "Ġbreaths": 8795,
    "ordinary": 8796,
    "ettle": 8797,
    "ending": 8798,
    "Ġtrans": 8799,
    "Ġrin": 8800,
    "Ġgasps": 8801,
    "ĠFreddie": 8802,
    "Got": 8803,
    "Ġrumbling": 8804,
    "Ġhatch": 8805,
    "ĠMomma": 8806,
    "over": 8807,
    "abra": 8808,
    "Ġgrassho": 8809,
    "Ġaccomplished": 8810,
    "ĠHopper": 8811,
    "acing": 8812,
    "Ġthump": 8813,
    "Ġtelescope": 8814,
    "Ġstrum": 8815,
    "Ġsmartest": 8816,
    "Ġmats": 8817,
    "Ġwhined": 8818,
    "Ġmoat": 8819,
    "Gina": 8820,
    "Ġscrambled": 8821,
    "Ġjugg": 8822,
    "Ġfarmers": 8823,
    "ĠIce": 8824,
    "Ġdrip": 8825,
    "Robbie": 8826,
    "Ġsyrup": 8827,
    "Ġgardens": 8828,
    "Ġcollapsed": 8829,
    "Ġangrily": 8830,
    "ĠMore": 8831,
    "ouraged": 8832,
    "idey": 8833,
    "Ġvegg": 8834,
    "Ġstyles": 8835,
    "Ġforests": 8836,
    "Ġexperiences": 8837,
    "Ġdiscoveries": 8838,
    "hole": 8839,
    "Ġtor": 8840,
    "Ġmedals": 8841,
    "Ġtypes": 8842,
    "Ġotters": 8843,
    "Ġmeaning": 8844,
    "Ġfaint": 8845,
    "Ġconqu": 8846,
    "ĠDoes": 8847,
    "pit": 8848,
    "adabra": 8849,
    "acock": 8850,
    "Ġsnapping": 8851,
    "Ġhardest": 8852,
    "Ġfif": 8853,
    "ering": 8854,
    "Ġmovements": 8855,
    "Ġexpression": 8856,
    "Ġsurv": 8857,
    "Ġchilly": 8858,
    "Ġbubbly": 8859,
    "Ġaffect": 8860,
    "Pinky": 8861,
    "Ġvests": 8862,
    "Ġunfair": 8863,
    "Ġcourt": 8864,
    "Whenever": 8865,
    "Ġtoothbrush": 8866,
    "Ġscores": 8867,
    "Ġextraordinary": 8868,
    "Never": 8869,
    "Ġattitude": 8870,
    "Ġvibr": 8871,
    "Ġhorri": 8872,
    "Ġbluebird": 8873,
    "ĠMonkey": 8874,
    "mel": 8875,
    "lls": 8876,
    "Mo": 8877,
    "Ġspears": 8878,
    "Ġketchup": 8879,
    "ĠBerry": 8880,
    "Mother": 8881,
    "Ġsooner": 8882,
    "Ġgrasshopper": 8883,
    "Ġbehaviour": 8884,
    "Ġpatches": 8885,
    "Ġhabit": 8886,
    "yd": 8887,
    "erts": 8888,
    "Karen": 8889,
    "Ġpokes": 8890,
    "Ġmomma": 8891,
    "Ġafar": 8892,
    "ĠAshley": 8893,
    "lo": 8894,
    "ieves": 8895,
    "Jacob": 8896,
    "Ġthicker": 8897,
    "Ġscri": 8898,
    "ĠFriend": 8899,
    "Jon": 8900,
    "Ġsqueezes": 8901,
    "Ġslithered": 8902,
    "Ġshrunk": 8903,
    "Ġclassmates": 8904,
    "ĠTerry": 8905,
    "ĠFle": 8906,
    "Ġicky": 8907,
    "Ġprickly": 8908,
    "Ġglittering": 8909,
    "Ġexpert": 8910,
    "Ġtopp": 8911,
    "Ġkneeling": 8912,
    "Ġannounced": 8913,
    "ĠSuper": 8914,
    "ĠRiri": 8915,
    "elling": 8916,
    "Ġpeacock": 8917,
    "Ġmarking": 8918,
    "ctric": 8919,
    "Ġcosts": 8920,
    "ĠCally": 8921,
    "ĠAchoo": 8922,
    "Ġzigzags": 8923,
    "Ġwatermel": 8924,
    "Ġthieves": 8925,
    "Ġskirts": 8926,
    "Ġjumper": 8927,
    "Ġhood": 8928,
    "Ġacts": 8929,
    "ĠZog": 8930,
    "ĠApp": 8931,
    "Ġwolves": 8932,
    "ĠSwim": 8933,
    "ĠCloud": 8934,
    "Papa": 8935,
    "Ġthumbs": 8936,
    "Ġsqueaky": 8937,
    "Ġconcer": 8938,
    "Ġcocoon": 8939,
    "Ġwoodcut": 8940,
    "Ġboards": 8941,
    "ĠEliza": 8942,
    "ĠBecky": 8943,
    "Ġservant": 8944,
    "idence": 8945,
    "affle": 8946,
    "Ġcheating": 8947,
    "ĠJason": 8948,
    "bu": 8949,
    "Ġtrading": 8950,
    "Ġraking": 8951,
    "cat": 8952,
    "Jessie": 8953,
    "Ġexplaining": 8954,
    "ĠEric": 8955,
    "rick": 8956,
    "Ġtidied": 8957,
    "Ġbiscuit": 8958,
    "Ġlunchtime": 8959,
    "Ġluckily": 8960,
    "ĠAc": 8961,
    "anced": 8962,
    "Frog": 8963,
    "ĠPuffy": 8964,
    "Ġspilling": 8965,
    "ĠDay": 8966,
    "Fire": 8967,
    "Ġtransform": 8968,
    "Ġdesserts": 8969,
    "ĠUse": 8970,
    "ĠMaddy": 8971,
    "ĠDaniel": 8972,
    "ĠAnimal": 8973,
    "âĢ¦": 8974,
    "ror": 8975,
    "ĠPig": 8976,
    "ĠMine": 8977,
    "ĠStill": 8978,
    "ĠGill": 8979,
    "rough": 8980,
    "amma": 8981,
    "Ġmessages": 8982,
    "Ġmirac": 8983,
    "ĠCaptain": 8984,
    "idy": 8985,
    "Ġwindowsill": 8986,
    "Ġchill": 8987,
    "Ġbeating": 8988,
    "ĠTammy": 8989,
    "ĠLung": 8990,
    "ĠGilly": 8991,
    "oot": 8992,
    "Ġseeking": 8993,
    "Ġactor": 8994,
    "ĠRainbow": 8995,
    "ĠLina": 8996,
    "ĠWilliam": 8997,
    "sess": 8998,
    "its": 8999,
    "ĠMath": 9000,
    "pril": 9001,
    "Any": 9002,
    "Ġforeshadow": 9003,
    "war": 9004,
    "acles": 9005,
    "Bluey": 9006,
    "Ġleans": 9007,
    "ĠStep": 9008,
    "ĠPinch": 9009,
    "ĠHi": 9010,
    "racadabra": 9011,
    "Freeze": 9012,
    "Bounce": 9013,
    "Ġwatermelon": 9014,
    "Ġhissing": 9015,
    "Ġflashing": 9016,
    "Ġdev": 9017,
    "Ġcloths": 9018,
    "ĠTiger": 9019,
    "ĠMonster": 9020,
    "ĠFrankie": 9021,
    "Ġwinding": 9022,
    "Ġpositive": 9023,
    "Ġfunn": 9024,
    "Ġdiscouraged": 9025,
    "ĠWil": 9026,
    "pop": 9027,
    "Ġwoodcutter": 9028,
    "Ġforts": 9029,
    "Ġdripped": 9030,
    "Ġcompete": 9031,
    "Ġteapot": 9032,
    "Ġpressing": 9033,
    "Ġdisagreeing": 9034,
    "icking": 9035,
    "Ġglimmering": 9036,
    "Ġveggies": 9037,
    "Ġtrusts": 9038,
    "Ġtidying": 9039,
    "Ġkangaroos": 9040,
    "ĠPeep": 9041,
    "Ġtempted": 9042,
    "Ġlanding": 9043,
    "ĠFlora": 9044,
    "Ġdock": 9045,
    "Ġshallow": 9046,
    "Ġoverw": 9047,
    "Ġformed": 9048,
    "lers": 9049,
    "Ġrack": 9050,
    "Ġfade": 9051,
    "ĠTooth": 9052,
    "flowers": 9053,
    "Ġworst": 9054,
    "Ġelectric": 9055,
    "Ġcops": 9056,
    "eling": 9057,
    "Nothing": 9058,
    "Ġapology": 9059,
    "iving": 9060,
    "creams": 9061,
    "ai": 9062,
    "Ġsleds": 9063,
    "ĠSilver": 9064,
    "ĠLife": 9065,
    "upid": 9066,
    "Ġcomets": 9067,
    "Ġass": 9068,
    "Owl": 9069,
    "Ġsav": 9070,
    "ĠShark": 9071,
    "ĠMag": 9072,
    "ĠJelly": 9073,
    "Bug": 9074,
    "Ġsituations": 9075,
    "Ġpapa": 9076,
    "Ġofficers": 9077,
    "Ġconversation": 9078,
    "Ġ4": 9079,
    "Rain": 9080,
    "ĠRoger": 9081,
    "ĠCharlotte": 9082,
    "storm": 9083,
    "aye": 9084,
    "Ġsuns": 9085,
    "Ġding": 9086,
    "âĢĿ,": 9087,
    "Ġzips": 9088,
    "Ġstructures": 9089,
    "Ġscurrying": 9090,
    "Ġpizzas": 9091,
    "Ġoverwhel": 9092,
    "Ġmiller": 9093,
    "ĠButter": 9094,
    "Ġgranddaughter": 9095,
    "Ġfoggy": 9096,
    "ĠOlivia": 9097,
    "ĠHurry": 9098,
    "ĠAmber": 9099,
    "Zoe": 9100,
    "ĠJaney": 9101,
    "Ġwebs": 9102,
    "Ġdeserved": 9103,
    "Rabbit": 9104,
    "Ġopportunity": 9105,
    "Ġcubs": 9106,
    "ĠYummy": 9107,
    "ĠSpidey": 9108,
    "ĠSasha": 9109,
    "ĠMixie": 9110,
    "ĠBuster": 9111,
    "Ġsnorted": 9112,
    "Ġrhino": 9113,
    "Ġdifferences": 9114,
    "ĠGold": 9115,
    "Ġquacking": 9116,
    "ĠTell": 9117,
    "ifully": 9118,
    "ended": 9119,
    "Fifi": 9120,
    "Ġheaven": 9121,
    "ĠBirds": 9122,
    "Ġunlo": 9123,
    "Ġlevers": 9124,
    "Ġinchworm": 9125,
    "Ġinter": 9126,
    "Ġapproach": 9127,
    "ĠTyler": 9128,
    "ssess": 9129,
    "Ġseagulls": 9130,
    "Ġpossess": 9131,
    "Ġcooperate": 9132,
    "ĠRufus": 9133,
    "ĠFelix": 9134,
    "ĠBoom": 9135,
    "welcome": 9136,
    "sers": 9137,
    "ragon": 9138,
    "of": 9139,
    "?âĢĿ.": 9140,
    "andra": 9141,
    "Ġpose": 9142,
    "Ġdisappointment": 9143,
    "ĠSmoke": 9144,
    "ocular": 9145,
    "Ġspeaks": 9146,
    "Ġsneaks": 9147,
    "snap": 9148,
    "Ġbinocular": 9149,
    "Ġartwork": 9150,
    "Ġsurfed": 9151,
    "Ġscowl": 9152,
    "Ġanswering": 9153,
    "ĠSnake": 9154,
    "Ġshortcut": 9155,
    "ĠGrand": 9156,
    "Ġsipped": 9157,
    "Ġrobin": 9158,
    "Ġdep": 9159,
    "Climb": 9160,
    "Ġarrest": 9161,
    "ĠInky": 9162,
    "ssy": 9163,
    "Ġunwrapped": 9164,
    "Ġribbit": 9165,
    "Ġreun": 9166,
    "Ġamused": 9167,
    "ĠAmanda": 9168,
    "ugar": 9169,
    "Ġrepeats": 9170,
    "Ġpepperoni": 9171,
    "Ġapplause": 9172,
    "Ġkeyhole": 9173,
    "Ġcheckout": 9174,
    "ĠMae": 9175,
    "ĠCars": 9176,
    "Lia": 9177,
    "Deal": 9178,
    "Ġvisitor": 9179,
    "Ġstriking": 9180,
    "Ġpuppets": 9181,
    "Ġpaddling": 9182,
    "Eat": 9183,
    "Ġunz": 9184,
    "Ġcroaked": 9185,
    "Ġattacked": 9186,
    "ĠCircle": 9187,
    "ĠBrian": 9188,
    "orsie": 9189,
    "Ġspooky": 9190,
    "ĠOtto": 9191,
    "ĠGus": 9192,
    "Each": 9193,
    "Ġgroaned": 9194,
    "Ġbeautifully": 9195,
    "ĠJean": 9196,
    "gar": 9197,
    "cidents": 9198,
    "Ġswimsuits": 9199,
    "Ġconsider": 9200,
    "Ġchecking": 9201,
    "uses": 9202,
    "ĠYellow": 9203,
    "jest": 9204,
    "Ġwaters": 9205,
    "Ġgroom": 9206,
    "ĠSqueak": 9207,
    "ĠSlinky": 9208,
    "yle": 9209,
    "Ġinvent": 9210,
    "Luke": 9211,
    "Ġnets": 9212,
    "Ġexams": 9213,
    "otion": 9214,
    "ets": 9215,
    "Ġdrying": 9216,
    "ĠRebecca": 9217,
    "udy": 9218,
    "artin": 9219,
    "agine": 9220,
    "Ġshrugs": 9221,
    "Ġlump": 9222,
    "ĠAuntie": 9223,
    "sie": 9224,
    "lest": 9225,
    "Ġsobbing": 9226,
    "Ġshyly": 9227,
    "Ġshoots": 9228,
    "Ġhonks": 9229,
    "Ġheels": 9230,
    "Ġcheerfully": 9231,
    "ĠSince": 9232,
    "ili": 9233,
    "hny": 9234,
    "esses": 9235,
    "Ġshh": 9236,
    "Ġchin": 9237,
    "anish": 9238,
    "Ġwhimpered": 9239,
    "Ġhealthier": 9240,
    "Ġhangs": 9241,
    "icious": 9242,
    "Milo": 9243,
    "ĠMus": 9244,
    "Ġcaterpillars": 9245,
    "izzes": 9246,
    "Slowly": 9247,
    "Ġsquinted": 9248,
    "Ġmagnifying": 9249,
    "Ġfries": 9250,
    "ĠRatty": 9251,
    "Ġfascinating": 9252,
    "Ġblamed": 9253,
    "ĠFind": 9254,
    "ulpture": 9255,
    "ching": 9256,
    "Ġsculpture": 9257,
    "Ġfrustration": 9258,
    "ĠTip": 9259,
    "ouched": 9260,
    "Ġshimmering": 9261,
    "ĠPenelope": 9262,
    "Ġposs": 9263,
    "ĠPeace": 9264,
    "edic": 9265,
    "Sharing": 9266,
    "Ġsuck": 9267,
    "Ġpleas": 9268,
    "Ġnumbered": 9269,
    "Ġnibble": 9270,
    "ĠWaffle": 9271,
    "othy": 9272,
    "ibbles": 9273,
    "ellie": 9274,
    "amil": 9275,
    "Ġflowing": 9276,
    "Ġbaa": 9277,
    "hings": 9278,
    "Pepper": 9279,
    "Ġraked": 9280,
    "Ġgrumbled": 9281,
    "ĠOff": 9282,
    "that": 9283,
    "Bubbles": 9284,
    "Ġbuilder": 9285,
    "racted": 9286,
    "eat": 9287,
    "Ġswaying": 9288,
    "Ġpetting": 9289,
    "Ġguards": 9290,
    "Ġfacing": 9291,
    "ĠWoolly": 9292,
    "Ġsprinkle": 9293,
    "Ġmysteries": 9294,
    "Ġdetails": 9295,
    "ĠHar": 9296,
    "sey": 9297,
    "Ġsnort": 9298,
    "Ġflock": 9299,
    "Ġenemy": 9300,
    "ĠBoat": 9301,
    "Ġtextures": 9302,
    "Ġtablet": 9303,
    "Ġgoodies": 9304,
    "ĠCurious": 9305,
    "ĠBarry": 9306,
    "Yesterday": 9307,
    "Ġwig": 9308,
    "Ġpopping": 9309,
    "Ġwildflowers": 9310,
    "Ġstacks": 9311,
    "Ġmarve": 9312,
    "Ġfans": 9313,
    "Ġcrops": 9314,
    "Ġcountries": 9315,
    "ĠJenn": 9316,
    "ĠGracie": 9317,
    "how": 9318,
    "Ġknobs": 9319,
    "ĠTessa": 9320,
    "ĠSeeing": 9321,
    "Ġlocal": 9322,
    "Ġbushy": 9323,
    "Ġstew": 9324,
    "Ġpeeped": 9325,
    "Ġhunting": 9326,
    "Ġdrowned": 9327,
    "Ġbowing": 9328,
    "Ġbinoculars": 9329,
    "Ġangrier": 9330,
    "ĠBubu": 9331,
    "Ġmaps": 9332,
    "ĠMatch": 9333,
    "Ġquizzes": 9334,
    "Ġniece": 9335,
    "Ġmoonlight": 9336,
    "ĠGlow": 9337,
    "Ġoutfits": 9338,
    "ĠJohnson": 9339,
    "ĠDeal": 9340,
    "OO": 9341,
    "Ġwhoosh": 9342,
    "Ġweaker": 9343,
    "Ġwrench": 9344,
    "Ġmindful": 9345,
    "Ġcrowded": 9346,
    "cycles": 9347,
    "Squ": 9348,
    "Ġendings": 9349,
    "ĠBeef": 9350,
    "oll": 9351,
    "Im": 9352,
    "Ġproperty": 9353,
    "Ġhesitation": 9354,
    "Ġflashes": 9355,
    "amiliar": 9356,
    "Ġunless": 9357,
    "Ġimaginations": 9358,
    "Ġfond": 9359,
    "Ġcarts": 9360,
    "Ġboil": 9361,
    "Ġability": 9362,
    "ĠOxy": 9363,
    "ĠAndrew": 9364,
    "getic": 9365,
    "Ġglared": 9366,
    "ĠRight": 9367,
    "ĠAccidents": 9368,
    "stand": 9369,
    "Ġunfamiliar": 9370,
    "Ġspaces": 9371,
    "Ġmicrow": 9372,
    "Ġknit": 9373,
    "Ġhaven": 9374,
    "Ġfolds": 9375,
    "ths": 9376,
    "saw": 9377,
    "Tuna": 9378,
    "Ġresponsibility": 9379,
    "Ġdirtier": 9380,
    "ĠPet": 9381,
    "bank": 9382,
    "Ġpouch": 9383,
    "Ġmicrowave": 9384,
    "Ġdesks": 9385,
    "ibly": 9386,
    "Bless": 9387,
    "Ġcracker": 9388,
    "rnie": 9389,
    "Ġswapped": 9390,
    "Ġmember": 9391,
    "Ġdate": 9392,
    "Ġaston": 9393,
    "ĠOxygen": 9394,
    "ĠRing": 9395,
    "ĠRavi": 9396,
    "lt": 9397,
    "free": 9398,
    "Want": 9399,
    "Cra": 9400,
    "Ġwhine": 9401,
    "Ġsoftened": 9402,
    "Ġrebu": 9403,
    "Ġdoorstep": 9404,
    "Ġdisappearing": 9405,
    "ĠPeggy": 9406,
    "ĠHelen": 9407,
    "ĠBun": 9408,
    "Ġquacks": 9409,
    "Ġnatur": 9410,
    "ĠChip": 9411,
    "scar": 9412,
    "Ġwriter": 9413,
    "Ġlistener": 9414,
    "ĠToo": 9415,
    "ĠFix": 9416,
    "Ġpriv": 9417,
    "Ġblushed": 9418,
    "ĠSpicy": 9419,
    "venir": 9420,
    "Ġpalms": 9421,
    "Ġnoticing": 9422,
    "upt": 9423,
    "repe": 9424,
    "poison": 9425,
    "Ġsouvenir": 9426,
    "ĠPast": 9427,
    "repeat": 9428,
    "entr": 9429,
    "Ġlaws": 9430,
    "Ġdisaster": 9431,
    "ĠTra": 9432,
    "ĠRes": 9433,
    "ĠGabby": 9434,
    "str": 9435,
    "reg": 9436,
    "endant": 9437,
    "Robby": 9438,
    "Ġphones": 9439,
    "ala": 9440,
    "Ava": 9441,
    "Ġconfidence": 9442,
    "ĠLi": 9443,
    "ĠCoal": 9444,
    "ĠCut": 9445,
    "ĠBert": 9446,
    "Ġtimid": 9447,
    "Ġstirs": 9448,
    "Ġoverwhelmed": 9449,
    "ingly": 9450,
    "Being": 9451,
    "Ġmayor": 9452,
    "Ġflick": 9453,
    "guess": 9454,
    "asmine": 9455,
    "Che": 9456,
    "Ġtugging": 9457,
    "ĠPretty": 9458,
    "ĠMole": 9459,
    "lor": 9460,
    "Ġuntangle": 9461,
    "Ġsatisfa": 9462,
    "Ġowls": 9463,
    "Ġmailing": 9464,
    "Ġinjured": 9465,
    "Whose": 9466,
    "Ġsatisfaction": 9467,
    "Ġconcentr": 9468,
    "ĠWhite": 9469,
    "ĠImmediately": 9470,
    "ĠBooks": 9471,
    "Fly": 9472,
    "ĠMarch": 9473,
    "ĠAnimals": 9474,
    "mers": 9475,
    "Sc": 9476,
    "Mittens": 9477,
    "Ġlim": 9478,
    "ĠEat": 9479,
    "this": 9480,
    "Mabel": 9481,
    "Ġprank": 9482,
    "ĠWonder": 9483,
    "ĠNora": 9484,
    "ĠBonnie": 9485,
    "Wiggly": 9486,
    "Ġhooves": 9487,
    "ĠTriangle": 9488,
    "ĠRun": 9489,
    "ĠPot": 9490,
    "ĠMelissa": 9491,
    "ĠKn": 9492,
    "well": 9493,
    "Jeff": 9494,
    "Ġfixer": 9495,
    "ĠStartled": 9496,
    "ĠSir": 9497,
    "ĠClean": 9498,
    "ĠClose": 9499,
    "icate": 9500,
    "Ġsnar": 9501,
    "Ġclut": 9502,
    "lish": 9503,
    "bling": 9504,
    "Excited": 9505,
    "Ġskies": 9506,
    "Ġinstrument": 9507,
    "ĠTrucky": 9508,
    "Ġcapt": 9509,
    "ĠMatilda": 9510,
    "ĠHorsie": 9511,
    "ĠFaye": 9512,
    "adually": 9513,
    "Ġdisagre": 9514,
    "iky": 9515,
    "Ġwriggled": 9516,
    "Ġstains": 9517,
    "Ġrinse": 9518,
    "Ġpecks": 9519,
    "Ġcreak": 9520,
    "ĠSleepy": 9521,
    "Susan": 9522,
    "Ġshave": 9523,
    "Ġbumping": 9524,
    "ĠSing": 9525,
    "ĠIcy": 9526,
    "ĠHeli": 9527,
    "ĠCrabby": 9528,
    "ulf": 9529,
    "Ġswirl": 9530,
    "Ġruff": 9531,
    "Ġbending": 9532,
    "cessary": 9533,
    "Playing": 9534,
    "Close": 9535,
    "Ġsandpit": 9536,
    "Ġexploration": 9537,
    "Ġchatted": 9538,
    "ĠScissors": 9539,
    "Make": 9540,
    "Ġrods": 9541,
    "Ġlever": 9542,
    "Ġfacts": 9543,
    "Sm": 9544,
    "Ġattaching": 9545,
    "ĠCandy": 9546,
    "Ġfooled": 9547,
    "Ġburger": 9548,
    "ĠBro": 9549,
    "Ġglows": 9550,
    "Ġconcerned": 9551,
    "Ġclearly": 9552,
    "Maya": 9553,
    "Ġsalon": 9554,
    "Ġreversing": 9555,
    "Ġlava": 9556,
    "Ġcompan": 9557,
    "Ġcertainly": 9558,
    "els": 9559,
    "Wally": 9560,
    "Ġsmelt": 9561,
    "Ġmotorcycles": 9562,
    "Ġfetched": 9563,
    "Ġcirc": 9564,
    "Ġtroll": 9565,
    "Ġtunes": 9566,
    "Ġsometime": 9567,
    "Ġprod": 9568,
    "Ġoldest": 9569,
    "Ġfireflies": 9570,
    "Ring": 9571,
    "Ġkissing": 9572,
    "Ġchallenges": 9573,
    "Ġblonde": 9574,
    "Kayla": 9575,
    "Ġwarmed": 9576,
    "ĠBobbie": 9577,
    "Ġunlocking": 9578,
    "Ġnatural": 9579,
    "Ġdifferently": 9580,
    "Ġbound": 9581,
    "ĠLots": 9582,
    "urple": 9583,
    "sa": 9584,
    "erg": 9585,
    "Tara": 9586,
    "Dino": 9587,
    "Abracadabra": 9588,
    "Ġrubb": 9589,
    "Ġriverbank": 9590,
    "Ġdetect": 9591,
    "Ġcutter": 9592,
    "Ġcupcake": 9593,
    "Ġconquered": 9594,
    "Ġhates": 9595,
    "Ġalley": 9596,
    "ĠFlap": 9597,
    "sorry": 9598,
    "Ġswirls": 9599,
    "Ġsends": 9600,
    "Ġrealise": 9601,
    "ĠOpen": 9602,
    "ĠFlopsy": 9603,
    "Julia": 9604,
    "Isn": 9605,
    "Ġwiggling": 9606,
    "Ġsensation": 9607,
    "Ġmunched": 9608,
    "Ġbanging": 9609,
    "ĠCammy": 9610,
    "Ġtoppings": 9611,
    "Ġhippos": 9612,
    "Ġfist": 9613,
    "Ġclips": 9614,
    "ĠReliable": 9615,
    "Doctor": 9616,
    "Ġswayed": 9617,
    "Ġstings": 9618,
    "Ġrobe": 9619,
    "Ġmiracle": 9620,
    "Ġhalves": 9621,
    "Ġbrakes": 9622,
    "ĠGreeny": 9623,
    "Hope": 9624,
    "Fish": 9625,
    "Ġsurvive": 9626,
    "Ġostriches": 9627,
    "ĠPink": 9628,
    "ĠClimb": 9629,
    "ula": 9630,
    "keepers": 9631,
    "bert": 9632,
    "Michael": 9633,
    "Ġtorto": 9634,
    "Ġotherwise": 9635,
    "Ġembra": 9636,
    "Ġcrushed": 9637,
    "Ġbubbling": 9638,
    "Ġtents": 9639,
    "ĠLooking": 9640,
    "ani": 9641,
    "Ġrepairing": 9642,
    "ĠOf": 9643,
    "Ġvinegar": 9644,
    "Ġstretchy": 9645,
    "Ġrubbish": 9646,
    "Ġlizards": 9647,
    "ĠWorking": 9648,
    "ĠFlicker": 9649,
    "Ġpassenger": 9650,
    "ĠEd": 9651,
    "aste": 9652,
    "Many": 9653,
    "Ġvibrant": 9654,
    "Ġtortoise": 9655,
    "Ġpounced": 9656,
    "ĠWhich": 9657,
    "Suzie": 9658,
    "Ġscene": 9659,
    "ĠRh": 9660,
    "ĠGrump": 9661,
    "gr": 9662,
    "Ġmooed": 9663,
    "Ġglided": 9664,
    "Ġdesperately": 9665,
    "Ġbas": 9666,
    "Ġsnip": 9667,
    "Ġpoop": 9668,
    "Ġmajest": 9669,
    "Ġintently": 9670,
    "Ġcopied": 9671,
    "Ġcalmer": 9672,
    "ĠSundays": 9673,
    "ĠLightning": 9674,
    "rap": 9675,
    "net": 9676,
    "Ġwoken": 9677,
    "Ġtwel": 9678,
    "Ġrags": 9679,
    "Ġjudges": 9680,
    "Ġjoyfully": 9681,
    "Ġjing": 9682,
    "Ġcoolest": 9683,
    "ĠPer": 9684,
    "smelling": 9685,
    "Ġlectures": 9686,
    "Ġglob": 9687,
    "ĠJody": 9688,
    "lyn": 9689,
    "isible": 9690,
    "Ġhips": 9691,
    "Ġcousins": 9692,
    "Ġastonished": 9693,
    "Ġcapes": 9694,
    "ĠOutside": 9695,
    "ĠLu": 9696,
    "uno": 9697,
    "Eww": 9698,
    "Ġsuccessfully": 9699,
    "Ġspeaker": 9700,
    "Ġreunited": 9701,
    "Ġinvisible": 9702,
    "Ġguesses": 9703,
    "Ġgooey": 9704,
    "Ġarrives": 9705,
    "why": 9706,
    "Ġtwelve": 9707,
    "Ġbats": 9708,
    "urity": 9709,
    "Mikey": 9710,
    "Ġgoodness": 9711,
    "Ġcomputers": 9712,
    "Ġchatting": 9713,
    "ĠCarla": 9714,
    "nded": 9715,
    "mie": 9716,
    "Ġstacking": 9717,
    "Ġsnowflake": 9718,
    "istory": 9719,
    "Ġreappeared": 9720,
    "Ġracer": 9721,
    "Ġpounds": 9722,
    "Ġparks": 9723,
    "Ġdesperate": 9724,
    "Ġcompanion": 9725,
    "Ġcommun": 9726,
    "bed": 9727,
    "Zigzag": 9728,
    "Ol": 9729,
    "Ġluckiest": 9730,
    "Ġlevel": 9731,
    "Ġdou": 9732,
    "Ġank": 9733,
    "Ġtale": 9734,
    "Ġstomachs": 9735,
    "Ġsells": 9736,
    "Ġgall": 9737,
    "Ġdumb": 9738,
    "Ġcrickets": 9739,
    "ĠSugar": 9740,
    "iggles": 9741,
    "Nick": 9742,
    "Ġwinds": 9743,
    "Ġsus": 9744,
    "Ġgates": 9745,
    "Ġdisobeyed": 9746,
    "Ġdisagreement": 9747,
    "ĠSteven": 9748,
    "hile": 9749,
    "More": 9750,
    "Ġpearls": 9751,
    "Ġhoses": 9752,
    "Ġcrisp": 9753,
    "Ġawhile": 9754,
    "ĠWhee": 9755,
    "ites": 9756,
    "Lou": 9757,
    "Ġsoda": 9758,
    "Ġpopsic": 9759,
    "Ġloyalty": 9760,
    "ĠOrange": 9761,
    "Linda": 9762,
    "Ġtongues": 9763,
    "ĠRosa": 9764,
    "usion": 9765,
    "rent": 9766,
    "Ġrider": 9767,
    "ĠCD": 9768,
    "Ooh": 9769,
    "ĠBlack": 9770,
    "pan": 9771,
    "Ġsurely": 9772,
    "Ġabo": 9773,
    "ĠLaw": 9774,
    "ĠAnnabelle": 9775,
    "des": 9776,
    "colored": 9777,
    "Ġoccasion": 9778,
    "Ġbund": 9779,
    "rum": 9780,
    "izza": 9781,
    "dog": 9782,
    "!âĢĻ": 9783,
    "Ġstun": 9784,
    "Ġguitars": 9785,
    "Ġchicks": 9786,
    "chief": 9787,
    "Ġseparating": 9788,
    "Ġseashe": 9789,
    "Ġrebuild": 9790,
    "Ġintelligence": 9791,
    "Ġalligators": 9792,
    "Ġaboard": 9793,
    "ĠRaven": 9794,
    "ĠIron": 9795,
    "ĠApril": 9796,
    "Found": 9797,
    "Ġcroak": 9798,
    "Ġcreep": 9799,
    "ĠWinky": 9800,
    "ĠViolet": 9801,
    "aids": 9802,
    "Something": 9803,
    "Catch": 9804,
    "Ġlearner": 9805,
    "Ġcaution": 9806,
    "Ġcuc": 9807,
    "ĠOld": 9808,
    "ĠCare": 9809,
    "solut": 9810,
    "Ġwhines": 9811,
    "Ġspiky": 9812,
    "Ġrevealing": 9813,
    "Ġrins": 9814,
    "ĠUni": 9815,
    "working": 9816,
    "Ġtickling": 9817,
    "Ġescap": 9818,
    "ĠSettle": 9819,
    "Ġunderwater": 9820,
    "Ġglobe": 9821,
    "Ġcrouched": 9822,
    "ĠRoar": 9823,
    "ĠCoby": 9824,
    "ĠBa": 9825,
    "udge": 9826,
    "everse": 9827,
    "!'.": 9828,
    "Ġprog": 9829,
    "Ġblooms": 9830,
    "Ġappearance": 9831,
    "Ġ''": 9832,
    "urricane": 9833,
    "stop": 9834,
    "seph": 9835,
    "ifer": 9836,
    "fived": 9837,
    "Jan": 9838,
    "Ġstrokes": 9839,
    "Ġleaking": 9840,
    "Ġhatched": 9841,
    "Ġguardian": 9842,
    "ĠSocky": 9843,
    "ealing": 9844,
    "arning": 9845,
    "Ġzookeepers": 9846,
    "Ġtant": 9847,
    "Ġroutine": 9848,
    "Ġpersistence": 9849,
    "Ġdoves": 9850,
    "Snap": 9851,
    "Sleep": 9852,
    "Chicky": 9853,
    "Ġtaps": 9854,
    "Ġsquashes": 9855,
    "Ġquilt": 9856,
    "Ġpainful": 9857,
    "Ġlighting": 9858,
    "Ġblame": 9859,
    "Ġadmit": 9860,
    "Toys": 9861,
    "Ahh": 9862,
    "Ġtempting": 9863,
    "Ġshattered": 9864,
    "Ġripp": 9865,
    "Ġmold": 9866,
    "Ġdeeply": 9867,
    "ĠPuff": 9868,
    "ggles": 9869,
    "Three": 9870,
    "Ralph": 9871,
    "Matt": 9872,
    "Ġthrone": 9873,
    "Ġsquirted": 9874,
    "Ġsecurity": 9875,
    "Ġpeeks": 9876,
    "Ġelectricity": 9877,
    "Ġcentre": 9878,
    "Ġburgers": 9879,
    "ĠSpin": 9880,
    "emon": 9881,
    "con": 9882,
    "Ġrealizing": 9883,
    "Ġcooks": 9884,
    "Ġallowing": 9885,
    "ĠLiam": 9886,
    "ushes": 9887,
    "orth": 9888,
    "oss": 9889,
    "cker": 9890,
    "Jessica": 9891,
    "Ġlar": 9892,
    "Ġexchange": 9893,
    "Ġchopping": 9894,
    "Share": 9895,
    "Sophia": 9896,
    "Ġsweetly": 9897,
    "ĠRace": 9898,
    "ĠQuickly": 9899,
    "ĠAlf": 9900,
    "vering": 9901,
    "Ġsweeter": 9902,
    "Ġrinsed": 9903,
    "Ġglittered": 9904,
    "isapp": 9905,
    "Zero": 9906,
    "Sw": 9907,
    "Ġmelts": 9908,
    "Ġmelody": 9909,
    "Ġgoggles": 9910,
    "Ġfurious": 9911,
    "Ġenergetic": 9912,
    "Ġdefeated": 9913,
    "Ġbuilders": 9914,
    "ĠInch": 9915,
    "asy": 9916,
    "Ġwaded": 9917,
    "Ġtantrum": 9918,
    "Ġsniffled": 9919,
    "Ġchooses": 9920,
    "ĠOtherwise": 9921,
    "ĠCats": 9922,
    "ĠComet": 9923,
    "Ġcontainer": 9924,
    "Ġcompeting": 9925,
    "ĠGiant": 9926,
    "eremy": 9927,
    "bang": 9928,
    "ĠSharp": 9929,
    "ĠMila": 9930,
    "arted": 9931,
    "Ġundone": 9932,
    "Ġseriously": 9933,
    "Ġprotection": 9934,
    "Ġlarger": 9935,
    "Ġlull": 9936,
    "Ġhudd": 9937,
    "Ġattempts": 9938,
    "ĠRara": 9939,
    "ĠPark": 9940,
    "ĠDuke": 9941,
    "Shoo": 9942,
    "Lizzie": 9943,
    "Ġtossing": 9944,
    "Ġhelicopters": 9945,
    "Ġcooed": 9946,
    "Ġcluck": 9947,
    "Ġbuckles": 9948,
    "ĠWhale": 9949,
    "ĠPinchy": 9950,
    "ĠCher": 9951,
    "Sweet": 9952,
    "ĠTears": 9953,
    "ĠSmo": 9954,
    "ĠOver": 9955,
    "solutely": 9956,
    "Still": 9957,
    "Squeaky": 9958,
    "Ġhummed": 9959,
    "Ġdedic": 9960,
    "Ġcourageous": 9961,
    "ĠMa": 9962,
    "ĠHor": 9963,
    "ĠDin": 9964,
    "Maddy": 9965,
    "Everything": 9966,
    "Curious": 9967,
    "Ġracers": 9968,
    "Ġpatients": 9969,
    "Ġmuster": 9970,
    "Ġgod": 9971,
    "Ġdeserves": 9972,
    "Ġaloud": 9973,
    "ĠThings": 9974,
    "aps": 9975,
    "Use": 9976,
    "ĠSquee": 9977,
    "ĠDragon": 9978,
    "Ġtours": 9979,
    "Ġmeets": 9980,
    "Ġmarvel": 9981,
    "ĠRusty": 9982,
    "ĠLiza": 9983,
    "ĠJet": 9984,
    "Froggy": 9985,
    "Ġwrapper": 9986,
    "ĠReddy": 9987,
    "ĠHops": 9988,
    "ĠCrusty": 9989,
    "Ġwhiskers": 9990,
    "Ġnicest": 9991,
    "Ġimproving": 9992,
    "Ġbooth": 9993,
    "ĠLand": 9994,
    "Surrender": 9995,
    "Rocky": 9996,
    "Ġmeadows": 9997,
    "Ġimaginary": 9998,
    "Ġbold": 9999
}